▁. 78850
▁の 38673
' 34849
▁? 30872
▁は 28929
▁に 28075
▁the 26151
▁you 25395
▁て 24505
▁i 24274
▁た 23546
▁を 22716
▁が 20828
s 19383
▁to 18170
▁だ 16033
▁a 15528
▁ 15319
▁! 14735
▁で 14587
▁it 14264
▁。 14005
▁と 13035
▁that 12274
▁and 12214
▁し 12126
▁か 11265
▁of 11231
. 11101
▁も 10281
▁ない 9855
▁is 9741
▁な 9362
t 9021
▁ん 8548
▁in 8455
▁です 8037
▁we 7868
▁よ 7308
▁this 7160
▁what 7094
▁、 5757
▁me 5414
▁から 5392
▁私 5372
▁for 5325
▁ます 5226
m 5019
▁was 4963
▁he 4893
▁こと 4860
▁do 4642
▁何 4576
▁are 4566
▁on 4538
▁have 4531
▁my 4418
▁・ 4362
▁be 4338
▁not 4305
▁い 4271
▁so 4252
▁can 4245
re 4229
▁your 4186
.. 3998
▁with 3993
▁てる 3874
▁ね 3827
▁but 3741
ed 3672
▁する 3570
▁no 3524
▁お 3432
▁there 3429
▁all 3272
▁それ 3250
▁don 3242
ing 3230
▁いる 3222
▁they 3205
▁know 3200
▁just 3134
? 2996
▁まし 2943
▁人 2912
▁about 2902
▁if 2896
▁like 2843
▁さ 2786
▁この 2770
▁here 2733
▁at 2700
▁れ 2571
▁って 2568
... 2564
▁そう 2535
▁これ 2530
▁ある 2528
っ 2528
い 2520
▁どう 2507
▁as 2493
▁わ 2479
▁one 2469
▁さん 2457
▁right 2416
▁彼 2392
▁go 2376
ll 2365
▁get 2363
▁out 2351
▁now 2336
▁じゃ 2330
▁she 2321
▁up 2220
▁from 2186
▁いい 2176
▁will 2139
! 2109
er 2076
▁その 2069
▁あなた 2064
▁an 2044
y 2041
▁how 2029
▁俺 2027
▁君 1983
ve 1981
▁him 1928
d 1922
▁her 1885
▁よう 1882
▁" 1881
▁ませ 1855
▁ば 1853
▁well 1831
▁who 1818
a 1815
▁「 1812
▁見 1812
▁」 1801
▁did 1773
▁see 1737
▁think 1737
▁got 1730
es 1724
▁want 1724
▁when 1719
o 1712
▁why 1684
り 1670
▁いう 1657
▁going 1633
▁let 1631
▁time 1610
▁or 1564
▁事 1539
i 1537
▁あり 1505
▁や 1499
▁were 1480
ン 1473
▁his 1471
▁oh 1462
▁ここ 1460
▁back 1456
し 1444
▁だっ 1442
▁ら 1438
▁good 1434
▁お前 1434
▁たち 1428
e 1427
▁come 1427
▁なら 1425
▁くれ 1415
ly 1411
▁たら 1409
al 1395
in 1390
く 1389
▁our 1379
▁them 1378
▁もう 1374
▁by 1361
▁where 1358
▁us 1356
▁一 1352
る 1349
▁的 1341
▁would 1322
▁だけ 1318
ー 1317
an 1311
▁then 1308
▁d 1306
▁今 1297
れ 1291
▁people 1281
▁been 1278
▁年 1274
▁誰 1265
▁2 1258
▁had 1255
▁たい 1255
▁really 1254
▁something 1250
ル 1249
▁もの 1237
▁p 1235
or 1228
▁yeah 1224
▁1 1221
▁者 1212
▁r 1208
▁彼女 1195
▁take 1181
▁言っ 1176
▁need 1166
▁more 1158
▁中 1157
c 1146
▁ぞ 1146
▁some 1140
▁けど 1137
ス 1137
▁つ 1136
▁okay 1127
▁( 1126
▁because 1124
▁まで 1122
▁has 1118
▁来 1113
▁なっ 1112
▁あっ 1107
▁) 1105
r 1103
▁n 1096
▁t 1093
ん 1091
▁look 1089
ic 1085
ら 1085
▁l 1084
え 1084
▁way 1079
▁b 1078
▁m 1076
h 1071
▁前 1069
▁僕 1065
▁あの 1064
▁could 1062
b 1060
u 1056
l 1054
▁say 1052
▁man 1049
▁なかっ 1046
▁hey 1032
▁なる 1029
▁き 1027
ers 1025
▁時 1016
▁なく 1015
▁やっ 1012
▁over 1009
き 1005
on 997
p 990
▁too 990
▁gonna 988
▁tell 981
▁make 977
▁k 974
▁yes 974
▁these 971
▁am 969
▁- 957
it 952
is 951
▁down 951
▁c 947
▁でき 946
▁please 940
▁へ 938
ラ 929
▁didn 925
en 921
▁ため 913
▁g 912
▁~ 912
▁手 912
す 912
▁, 905
▁せ 902
g 898
▁only 895
▁very 894
ar 893
▁said 889
▁気 889
▁3 879
リ 879
▁even 875
▁f 875
▁でしょう 874
▁達 859
▁two 848
▁どこ 843
ion 833
n 831
▁h 828
▁should 825
▁自分 822
▁doing 819
▁first 818
f 814
▁their 814
▁そして 811
▁sorry 800
▁られ 798
▁little 796
▁必要 791
▁大 790
▁into 785
▁話 785
▁方 783
▁work 782
▁そんな 782
ろ 781
イ 776
▁日 774
▁ア 773
▁思っ 771
け 769
et 762
▁[ 760
am 750
▁出 748
at 747
さ 746
▁any 738
▁thing 736
▁家 734
▁after 732
▁知っ 723
ent 720
ation 718
▁ch 712
▁much 712
め 709
▁off 706
▁カ 704
as 701
▁mean 700
ま 698
▁だろ 695
▁w 693
▁できる 689
か 687
▁find 686
▁still 686
k 685
▁だろう 684
▁help 683
▁あ 681
う 680
▁j 679
ク 676
▁never 675
▁other 675
▁時間 671
▁give 670
▁world 668
▁不 666
ch 665
▁後 663
▁those 661
▁でし 661
▁things 658
▁目 658
▁years 657
▁なん 657
ies 653
▁考え 652
ate 651
▁s 650
▁まだ 648
▁ちょっと 647
▁上 647
▁本当 637
▁thank 632
▁which 632
▁つい 632
▁again 631
▁行く 631
▁はい 629
ロ 626
み 623
リー 622
▁より 621
▁st 620
▁言う 617
▁wait 615
▁➡ 614
▁ああ 614
▁なり 614
▁home 612
▁我々 612
v 610
▁sh 610
ア 609
le 608
▁life 607
わ 606
▁― 604
id 603
us 603
▁before 603
▁than 603
▁anything 601
▁世界 599
w 598
▁new 595
ad 589
▁day 589
▁5 587
▁: 587
▁ねえ 585
▁' 582
▁いつ 578
▁ちゃん 577
ur 574
▁ください 572
▁4 571
▁v 571
▁last 570
im 569
▁バ 569
ant 568
▁re 568
▁call 567
▁れる 567
el 565
▁thought 565
▁マ 565
▁そこ 563
▁stop 560
▁sure 559
▁持っ 558
▁いや 557
▁] 555
▁思い 555
▁他 551
▁行っ 547
os 546
▁put 546
ット 544
▁問題 542
▁男 542
▁話し 541
um 539
▁聞い 537
▁un 536
▁ご 536
ッ 536
▁love 534
▁long 533
人 533
▁大丈夫 530
ag 528
z 528
▁仕事 528
▁こんな 526
▁car 525
▁金 525
▁talk 523
▁あれ 522
せ 522
ズ 522
ール 522
ie 521
ist 521
▁なぜ 521
マ 521
▁一緒 519
▁思う 518
▁エ 517
▁なんて 515
il 514
▁kind 514
ナ 514
est 512
▁様 512
ック 512
un 511
▁また 511
▁ありがとう 508
ブ 507
▁night 505
▁nothing 505
▁おい 505
▁所 505
ot 504
▁being 504
▁《 504
th 503
▁gr 503
▁today 502
▁10 498
▁子 498
▁maybe 497
▁told 496
▁同じ 493
▁コ 492
ia 491
▁away 491
▁下 491
▁C 490
▁same 489
▁found 488
om 486
▁also 486
▁リ 485
▁でしょ 484
ム 483
▁keep 480
▁分 480
▁学 480
▁皆 479
▁シ 478
▁ス 478
▁always 477
▁through 476
st 475
▁actually 475
▁度 475
▁父 475
ay 474
▁many 474
▁lot 473
▁name 473
▁mr 472
▁tr 472
ol 471
▁around 470
▁オ 469
▁ハ 466
▁every 465
▁奴 465
▁》 464
ive 462
▁sp 462
▁y 462
▁生 462
タ 462
▁今日 461
ure 458
▁place 456
子 456
▁isn 455
▁kill 453
▁se 452
▁ロ 452
しい 451
カ 451
▁br 450
▁won 448
able 447
ated 447
ment 447
▁知ら 447
▁み 444
▁やる 443
ート 442
▁みたい 441
▁came 440
▁doesn 440
▁guy 440
▁does 438
ip 436
▁車 436
▁みんな 435
▁... 433
▁better 433
▁great 433
1 431
▁分かっ 430
しく 430
レ 430
ance 429
se 429
▁dr 428
▁e 428
▁own 428
▁性 428
▁電話 428
▁big 427
▁力 427
れる 424
2 422
▁everything 422
▁外 422
▁待っ 422
コ 421
▁uh 419
▁ク 419
ち 419
▁someone 418
▁しかし 418
▁国 418
ig 417
▁made 416
▁ラ 416
ウ 416
▁もし 415
▁god 412
▁ず 412
ity 411
▁A 411
▁え 411
▁ah 409
▁次 409
ab 408
▁three 408
▁人間 408
▁may 407
▁よく 407
チ 406
ard 405
▁sc 405
▁father 404
▁believe 403
▁must 403
▁understand 403
▁6 401
▁ever 401
▁ましょう 401
▁イ 401
▁next 400
▁好き 399
▁wanted 397
▁すぐ 397
▁ところ 397
age 396
▁ago 396
▁っ 396
ak 395
▁might 395
バ 393
▁care 392
▁デ 391
フ 391
▁bad 390
▁ただ 389
▁ド 389
▁数 389
ける 389
ical 388
▁cl 388
▁happened 387
▁mother 387
▁wrong 387
キ 386
シ 386
ine 385
▁先 385
ul 384
▁本 384
える 384
▁most 383
end 382
▁person 382
▁なさい 382
物 382
3 381
ions 381
▁end 381
▁体 381
▁場所 381
ト 380
▁use 379
▁うん 379
▁another 378
▁school 378
▁あんた 378
▁done 377
▁guys 376
▁ぜ 376
ir 375
ut 375
▁al 375
▁o 375
▁じゃあ 374
▁母 374
▁研究 374
▁少し 373
ダ 372
ニ 372
▁わかっ 371
▁メ 371
▁物 371
▁already 370
▁ask 370
▁とき 370
▁パ 370
op 368
ジ 368
▁course 367
▁べき 366
▁子供 366
▁無 366
▁talking 365
ter 364
▁万 364
▁もっと 363
▁心 362
▁real 361
▁タ 361
▁ト 360
▁殺し 360
▁feel 359
▁間 359
▁head 358
▁違う 358
▁leave 357
5 356
▁huh 356
▁女 356
em 355
▁coming 355
▁looking 354
▁old 354
▁セ 354
ap 353
▁left 353
▁良い 353
▁try 352
▁言い 352
▁回 351
ド 351
▁remember 350
0 349
▁called 349
▁money 349
▁先生 349
ac 348
▁こう 348
▁enough 347
▁ー 347
▁見つけ 347
た 347
ro 345
ill 344
▁8 344
▁はず 344
▁ボ 344
▁レ 344
▁死ん 344
グ 343
プ 343
▁しれ 342
▁サ 342
▁願い 341
ian 340
▁heard 340
▁move 340
▁everyone 339
▁キ 339
▁play 338
▁られる 338
▁大学 338
4 337
8 337
ish 337
x 337
よう 337
ディ 336
▁cr 335
▁high 335
▁信じ 335
▁S 334
▁together 334
ry 333
▁house 333
qu 332
▁room 331
▁どんな 331
▁M 330
▁girl 330
ast 329
▁地 329
ード 329
9 328
▁stay 328
▁went 327
ティ 327
▁生き 326
▁全て 325
▁情報 325
スト 325
と 324
▁7 323
▁show 323
▁fl 322
▁saying 322
つ 322
▁ar 320
▁co 320
▁dead 320
▁hear 320
▁たく 320
▁わけ 320
ous 319
▁ダ 318
▁神 318
び 318
げ 317
て 317
▁う 316
▁小 316
ーン 316
ust 314
▁言わ 314
サ 314
7 312
▁best 312
▁しか 312
▁別 312
▁different 311
▁part 310
▁under 310
▁year 310
les 309
▁yet 309
▁くれる 309
▁たり 308
▁入っ 308
ント 308
▁saw 307
▁such 307
▁名前 307
▁関係 307
事 307
ting 306
▁名 306
▁無い 306
j 305
▁killed 305
▁いく 305
▁せる 305
▁hand 304
▁used 304
▁いっ 304
▁悪い 304
▁発 304
▁部 304
ース 304
▁con 303
▁しよう 303
▁高 303
める 303
手 303
ors 302
▁ま 301
▁会 301
▁す 300
▁助け 300
▁合 300
ミ 300
▁else 299
▁th 299
▁ホ 299
▁true 298
々 298
: 297
ber 297
▁family 297
▁getting 297
▁war 296
▁機 296
ケ 296
▁run 295
▁trying 295
▁without 295
出 295
ow 294
▁met 294
▁ガ 294
が 294
ge 293
▁bl 293
▁dis 293
▁すべて 293
▁可能 293
▁hell 292
▁nice 292
▁problem 292
▁thanks 292
▁二 291
▁実 291
リア 291
ating 290
▁なけれ 290
▁取り 290
む 290
▁意味 289
ary 288
ics 288
▁de 288
▁die 288
▁fine 288
▁listen 288
▁有 288
▁son 287
▁教え 287
▁9 286
▁start 286
▁♪ 286
▁ミ 286
▁とっ 285
▁通り 285
00 284
▁月 284
▁bring 283
▁早く 283
▁ha 282
▁hard 282
and 281
▁20 281
▁friend 281
▁since 281
▁bit 280
こ 280
オ 280
▁水 279
▁idea 278
▁wasn 278
▁変 278
ンド 278
体 278
▁live 277
▁mar 277
▁mind 277
▁took 277
▁ごめん 277
▁sir 276
ップ 276
all 275
▁fr 275
▁morning 275
▁行き 275
▁open 274
▁pretty 274
ラン 274
▁matter 273
▁ok 273
6 272
▁its 272
▁sl 272
▁しろ 272
▁dad 271
▁once 271
▁working 271
▁など 271
ば 271
▁fun 270
▁mom 270
▁女性 270
▁second 269
▁くる 269
▁頭 269
力 269
▁able 268
▁power 268
▁とても 268
▁オレ 268
▁真 268
▁case 267
▁job 267
▁set 267
▁thinking 267
▁出来 267
▁受け 267
▁心配 267
ビ 267
ations 266
▁knew 266
▁こ 266
▁ダメ 266
▁死 266
ail 265
ass 265
▁つもり 265
▁感じ 264
▁最初 264
テ 264
者 264
▁来る 263
かっ 263
も 263
▁face 262
▁fuck 262
▁ほど 262
エ 261
▁ベ 260
own 259
▁brother 259
▁ずっと 259
▁チ 259
▁D 258
▁until 258
▁yourself 258
▁やり 258
ents 257
▁human 257
▁ええ 257
▁長 257
▁important 256
▁fight 255
▁hold 255
▁u 255
oo 253
ph 253
ver 253
▁やめ 253
▁ケ 253
▁ポ 253
▁始め 253
行 253
aw 252
ore 252
ou 252
▁while 252
▁顔 252
▁最後 251
▁多く 250
▁我 250
▁連れ 250
▁一人 249
▁用 249
ュー 249
上 249
合 249
are 248
▁far 248
▁guess 248
▁方法 248
な 248
面 248
iz 247
▁woman 247
に 247
▁few 246
▁家族 246
定 246
ons 245
▁both 245
▁pl 245
▁事件 245
▁正 245
▁起き 245
▁men 244
▁point 244
▁ウ 244
▁入れ 244
▁新しい 244
ング 244
気 244
▁警察 243
場 243
▁人々 242
▁海 242
ord 241
sh 241
▁ex 241
▁friends 241
one 239
▁200 239
▁T 239
▁boy 239
▁number 239
▁すれ 239
▁inside 238
ーク 238
ide 237
ik 237
▁fact 237
▁soon 237
▁全部 237
モ 237
ens 236
▁seen 236
▁うち 236
▁為 236
イン 236
▁えっ 235
▁以上 235
ang 234
▁eat 234
▁使っ 234
じ 234
man 233
▁15 233
▁ab 233
▁pr 233
▁ちゃっ 233
▁居 233
▁phone 232
ネ 232
ッド 231
▁days 230
▁each 230
▁lost 230
▁ゴ 230
長 230
ri 229
▁body 229
▁rest 229
度 229
ach 228
ite 228
ud 228
▁ナ 228
▁戻っ 228
ベ 228
ire 227
▁change 227
▁z 227
▁化 227
▁夜 227
▁新 227
ノ 227
下 227
出し 227
ain 226
▁官 226
▁理由 226
・ 226
▁times 225
▁ござい 225
▁口 225
▁科学 225
▁自 225
ガ 225
S 224
ib 224
od 224
▁alone 224
▁story 224
▁turn 224
▁着 224
▁食べ 224
ぶ 224
ツ 224
金 224
als 223
ans 223
king 223
▁anyone 223
▁probably 223
▁wouldn 223
▁ビ 223
ぎ 223
ra 222
▁li 222
▁police 222
▁欲しい 222
ah 221
ally 221
ce 221
▁fucking 221
▁こっち 221
ick 220
▁deal 220
▁res 220
▁公 220
▁内 220
ソン 220
リン 220
立 220
▁act 219
入 219
▁.. 218
▁watch 218
▁ブ 218
ろう 218
理 218
ess 217
ful 217
▁happen 217
▁looks 217
▁means 217
▁myself 217
▁でる 217
▁学校 217
▁部屋 217
ニー 217
田 217
if 216
▁P 216
▁blood 216
▁meet 216
▁water 216
▁ふ 216
- 215
▁こそ 215
▁パパ 215
▁人生 215
▁見せ 215
▁重要 215
ight 214
▁kid 214
▁F 213
▁fire 213
▁having 213
▁wife 213
▁モ 213
▁写真 213
▁第 213
せる 213
ise 212
▁12 212
▁I 212
▁late 212
▁lo 212
▁started 212
▁よっ 212
▁ピ 212
▁忘れ 212
▁是 212
▁close 211
▁ち 211
バー 211
ence 210
▁become 210
▁haven 210
▁heart 210
▁reason 210
▁つけ 210
▁つまり 210
▁ニ 210
▁ネ 209
▁引き 209
ボ 209
A 208
iv 208
▁hope 208
▁まま 208
国 208
ial 207
▁though 207
用 207
▁ad 206
▁asked 206
▁city 206
▁pre 206
▁sa 206
▁says 206
▁いけ 206
▁フ 206
▁覚え 206
ake 205
▁baby 205
▁whole 205
▁よる 205
▁夢 205
メ 205
ck 204
ile 204
ok 204
ade 203
▁ass 203
▁child 203
▁こちら 203
▁よし 203
▁天 203
▁最 203
▁逃げ 203
ates 202
▁N 202
▁bar 202
▁su 202
▁um 202
▁直 202
▁結婚 202
ハ 202
ke 201
up 201
▁30 201
▁protect 201
▁seems 201
▁さあ 201
▁まあ 201
▁もん 201
▁プ 201
よ 201
ナー 201
uk 200
▁同 200
▁実際 200
や 200
成 200
its 199
our 199
ves 199
▁class 199
▁five 199
▁red 199
▁データ 199
▁命 199
▁見え 199
▁str 198
▁ママ 198
▁代 198
▁分から 198
▁放 198
▁理解 198
▁連絡 198
べ 198
ゴ 198
▁役 197
▁番 197
▁行か 197
out 196
▁あいつ 196
▁せい 196
▁テ 196
▁息子 196
▁愛 196
ai 195
og 195
▁couldn 195
▁会社 195
動 195
学 195
▁taking 194
▁あと 194
▁友達 194
▁技術 194
▁空 194
ere 193
▁check 193
▁ser 193
▁アル 193
ロー 193
az 192
▁break 192
▁har 192
▁light 192
▁くらい 192
▁ル 192
▁100 191
▁anyway 191
▁eyes 191
▁hands 191
▁special 191
▁もちろん 191
▁システム 191
▁無理 191
▁O 190
▁between 190
▁imp 190
▁pro 190
▁法 190
▁言葉 190
ition 189
▁moment 189
▁shit 189
▁whatever 189
▁ワ 189
▁三 189
▁光 189
▁答え 189
▁銃 189
業 189
▁side 188
▁解 188
だ 188
ack 187
art 187
ied 187
ning 187
▁black 187
▁question 187
▁とも 187
▁なきゃ 187
▁ソ 187
▁comes 186
▁later 186
▁team 186
▁かけ 186
▁そ 186
あ 186
ぐ 186
ーム 186
her 185
ness 185
ts 185
ty 185
▁en 185
▁なんか 185
▁アメリカ 185
▁美 185
▁行け 185
▁道 185
イト 185
ash 184
he 184
pl 184
▁'' 184
▁business 184
▁なに 184
▁やつ 184
▁ヒ 184
▁見る 184
▁death 183
▁≪ 183
▁準備 183
▁社会 183
の 183
ase 182
ep 182
ings 182
▁te 182
▁キャ 182
▁分かる 182
▁殺人 182
▁身 182
ank 181
av 181
▁`` 181
▁free 181
▁tomorrow 181
▁強 181
▁捜査 181
▁探し 181
▁殺さ 181
ラー 181
ージ 181
ets 180
per 180
▁18 180
▁19 180
▁against 180
▁gotta 180
▁order 180
▁per 180
▁president 180
▁チャ 180
▁ドル 180
▁下さい 180
▁嘘 180
▁大きな 180
▁親 180
▁わから 179
▁娘 179
▁室 179
▁Engineering 178
▁gone 178
▁quite 178
▁read 178
▁attack 177
▁died 177
▁happy 177
▁system 177
▁test 177
▁王 177
▁相 177
▁att 176
▁comp 176
▁company 176
▁conf 176
▁mon 176
▁ヤ 176
▁作っ 176
▁嫌 176
▁約束 176
▁聞き 176
▁言え 176
▁four 175
▁minutes 175
▁ready 175
▁sister 175
▁よかっ 175
▁血 175
▁音 175
まっ 175
ッチ 175
ue 174
▁ma 174
▁オー 174
▁危険 174
▁死ぬ 174
▁重 174
ター 174
ンク 174
▁grand 173
▁どの 173
▁グ 173
▁元 173
▁悪 173
的 173
▁Tokyo 172
▁ジ 172
▁バカ 172
がっ 172
ual 171
▁hours 171
▁int 171
▁possible 171
▁東京 171
▁cut 170
▁em 170
▁rec 170
▁しまっ 170
▁仲間 170
▁兄 170
ね 170
点 170
生 170
目 170
▁E 169
▁hit 169
▁一番 169
▁犯人 169
道 169
ling 168
▁excuse 168
▁future 168
▁gun 168
▁least 168
▁qu 168
▁ゲ 168
▁店 168
▁歳 168
▁調べ 168
▁通 168
▁風 168
ザ 168
be 167
▁answer 167
▁hurt 167
▁worry 167
▁全 167
▁得 167
▁絶対 167
▁要 167
ヤ 167
ンス 167
▁sign 166
▁women 166
▁どれ 166
ワ 166
地 166
▁chance 165
▁children 165
▁front 165
▁shut 165
▁ねぇ 165
▁ほら 165
▁主 165
▁動 165
▁工学 165
▁相手 165
▁説明 165
ックス 165
ins 164
▁air 164
▁door 164
▁hi 164
▁making 164
▁million 164
▁past 164
▁plan 164
▁stuff 164
▁wh 164
▁ど 164
▁止め 164
▁点 164
▁確認 164
ャー 164
ama 163
▁B 163
▁cont 163
▁half 163
▁outside 163
▁safe 163
▁small 163
▁かしら 163
ath 162
ific 162
▁bu 162
▁miss 162
▁ちゃ 162
▁出来る 162
▁地球 162
▁安全 162
ライ 162
分 162
▁anymore 161
▁cons 161
▁control 161
▁save 161
▁stand 161
▁wants 161
▁win 161
▁word 161
▁会っ 161
▁分かり 161
▁初めて 161
▁明日 161
▁結果 161
▁食 161
かけ 161
ced 160
ond 160
ort 160
pt 160
▁book 160
▁line 160
▁声 160
▁帰っ 160
▁思わ 160
▁火 160
▁確か 160
▁sort 159
▁wish 159
▁やら 159
▁ジョ 159
▁フィ 159
▁ペ 159
▁戦 159
▁計画 159
ざ 159
そう 159
I 158
▁exactly 158
▁fbi 158
▁less 158
▁office 158
▁top 158
▁week 158
▁素晴らしい 158
] 157
▁aren 157
▁pay 157
▁trans 157
▁山 157
ative 156
ator 156
oy 156
ug 156
▁H 156
▁earth 156
▁full 156
▁gave 156
▁hello 156
▁makes 156
▁trust 156
▁young 156
▁すごい 156
▁指 156
▁状況 156
ious 155
isan 155
▁ed 155
▁news 155
▁ジェ 155
▁共 155
▁再 155
▁待て 155
▁持ち 155
▁脳 155
会 155
T 154
ct 154
ler 154
▁damn 154
▁ph 154
▁wanna 154
▁ひと 154
▁スト 154
▁存在 154
▁花 154
ピ 154
E 153
act 153
ms 153
ne 153
▁brain 153
▁knows 153
▁level 153
▁par 153
▁speak 153
▁waiting 153
▁出し 153
▁寝 153
ソ 153
▁information 152
▁ne 152
▁pain 152
▁reg 152
▁わかる 152
▁サン 152
▁チーム 152
▁フェ 152
▁書 152
ane 151
ara 151
asan 151
▁doctor 151
▁food 151
▁forget 151
▁game 151
▁po 151
▁secret 151
▁sent 151
▁解決 151
ず 151
ose 150
red 150
▁che 150
▁gen 150
▁さて 150
▁ながら 150
▁ファ 150
▁攻撃 150
▁朝 150
法 150
ace 149
▁bur 149
▁jack 149
▁king 149
▁using 149
▁walk 149
▁作 149
▁殺す 149
▁開 149
中 149
▁jo 148
▁tried 148
▁最高 148
▁生活 148
▁見える 148
▁進 148
上げ 148
000 147
ier 147
uc 147
ved 147
▁R 147
▁behind 147
▁truth 147
▁たかっ 147
▁ヘ 147
▁士 147
▁広 147
▁集 147
言 147
chan 146
hing 146
ron 146
▁ag 146
▁john 146
▁lives 146
▁pass 146
▁rem 146
▁sm 146
▁sun 146
▁ぬ 146
▁仕 146
▁好 146
▁明 146
▁現 146
▁自由 146
▁表 146
おう 146
ご 146
ルト 146
ーズ 146
ger 145
▁brought 145
▁dist 145
▁gets 145
▁inv 145
▁kids 145
▁いいえ 145
▁ひ 145
▁続け 145
▁薬 145
▁話す 145
▁質問 145
▁選 145
当 145
▁alive 144
▁dec 144
▁le 144
▁sit 144
▁strong 144
▁まず 144
▁ジャ 144
▁協力 144
▁病院 144
内 144
ner 143
▁ins 143
▁running 143
▁supposed 143
▁会い 143
▁急 143
イル 143
切 143
心 143
込ん 143
ell 142
iss 142
ities 142
ving 142
▁almost 142
▁clear 142
▁sw 142
▁こいつ 142
▁ノ 142
▁成 142
ロン 142
ists 141
▁% 141
▁country 141
▁fall 141
▁group 141
▁land 141
▁master 141
▁wonder 141
▁ほ 141
▁ほう 141
▁ッ 141
▁了 141
▁場合 141
▁科 141
▁終わり 141
▁頃 141
知 141
間 141
gr 140
less 140
ory 140
▁cur 140
▁living 140
▁shot 140
▁きっと 140
▁友人 140
▁夫 140
▁形 140
▁発見 140
▁知り 140
▁行こう 140
▁語 140
シー 140
ンジ 140
大 140
山 140
明 140
ami 139
ome 139
ong 139
▁11 139
▁beautiful 139
▁either 139
▁exp 139
▁touch 139
▁tre 139
▁例 139
▁姉 139
▁愛し 139
▁運 139
レス 139
ction 138
son 138
▁bo 138
▁bre 138
▁clean 138
▁ジョン 138
▁バー 138
▁二人 138
▁検 138
▁船 138
作 138
ize 137
led 137
▁art 137
▁card 137
▁husband 137
▁mine 137
▁ref 137
▁sleep 137
▁sub 137
▁どうぞ 137
▁ディ 137
▁ホント 137
▁保 137
▁大変 137
▁白 137
▁興味 137
▁良く 137
ave 136
ea 136
ines 136
ized 136
ments 136
▁40 136
▁easy 136
▁everybody 136
▁gu 136
▁inter 136
▁return 136
▁あげ 136
▁コン 136
▁シャ 136
▁入 136
▁博士 136
▁軍 136
デ 136
レー 136
務 136
air 135
ci 135
ice 135
ives 135
ush 135
▁building 135
▁finally 135
▁hospital 135
▁others 135
▁向 135
▁投 135
▁木 135
▁未来 135
▁犬 135
▁自身 135
▁証拠 135
回 135
ark 134
ld 134
▁el 134
▁hurry 134
▁somebody 134
▁いか 134
▁原子 134
▁現在 134
▁足 134
▁違い 134
日 134
uck 133
ures 133
▁dep 133
▁feeling 133
▁law 133
▁与え 133
▁奥 133
▁探 133
▁昨日 133
▁街 133
▁電 133
▁頼む 133
ラス 133
出す 133
io 132
▁Technology 132
▁app 132
▁report 132
▁sometimes 132
▁trouble 132
▁千 132
▁対 132
▁救 132
▁昔 132
▁歌 132
ペ 132
本 132
▁dna 131
▁gl 131
▁happens 131
▁tonight 131
▁あぁ 131
▁ちゃんと 131
▁てん 131
▁伝え 131
▁全員 131
▁教 131
▁黒 131
数 131
部 131
ars 130
by 130
ee 130
ement 130
na 130
▁cannot 130
▁ent 130
▁ship 130
▁six 130
▁ライ 130
▁傷 130
▁屋 130
セ 130
年 130
oc 129
▁er 129
▁minute 129
▁tw 129
▁当 129
ど 129
家 129
ood 128
▁L 128
▁couple 128
▁decided 128
▁explain 128
▁lord 128
▁加 128
▁勝 128
▁取っ 128
▁患者 128
▁消 128
ェ 128
ft 127
▁W 127
▁needs 127
▁pick 127
▁sn 127
▁すぎ 127
▁ウォ 127
▁カード 127
▁クソ 127
▁プロ 127
▁件 127
▁作り 127
▁出る 127
▁多 127
▁工業 127
▁行動 127
▁間違い 127
まり 127
わっ 127
期 127
C 126
ale 126
ob 126
▁dan 126
▁di 126
▁months 126
▁いき 126
▁ほしい 126
▁マー 126
▁十分 126
▁暗 126
▁簡単 126
▁組織 126
▁観 126
▁非常 126
スター 126
ュ 126
レイ 126
int 125
▁G 125
▁buy 125
▁dream 125
▁percent 125
▁sam 125
▁ten 125
▁アイ 125
▁宇宙 125
▁敵 125
▁環境 125
▁過ぎ 125
▁関 125
ind 124
▁201 124
▁25 124
▁afraid 124
▁along 124
▁daughter 124
▁inst 124
▁parents 124
▁research 124
▁words 124
▁たくさん 124
▁ギ 124
▁ロー 124
▁感 124
▁特 124
ぼ 124
▁design 123
▁drop 123
▁fe 123
▁ho 123
▁interesting 123
▁sk 123
▁sound 123
▁あまり 123
▁うまく 123
▁ばかり 123
▁ゲーム 123
▁ヤツ 123
▁最も 123
▁生まれ 123
▁超 123
そ 123
ically 122
pr 122
ress 122
ters 122
use 122
▁bet 122
▁ca 122
▁club 122
▁crazy 122
▁department 122
▁lose 122
▁sounds 122
▁step 122
▁welcome 122
▁しまう 122
▁アン 122
▁サイ 122
▁ム 122
▁変え 122
▁秘密 122
▁笑 122
▁落ち 122
カー 122
▁50 121
▁des 121
▁expect 121
▁girls 121
▁mad 121
▁sense 121
▁stupid 121
▁white 121
▁wow 121
▁受 121
▁場 121
▁感謝 121
▁歩 121
▁開発 121
ダー 121
射 121
ism 120
▁Science 120
▁acc 120
▁char 120
▁choice 120
▁drink 120
▁lead 120
▁rel 120
▁security 120
▁star 120
▁students 120
▁taken 120
▁telling 120
▁wall 120
▁いえ 120
▁わたし 120
▁呼ん 120
▁妻 120
▁気持ち 120
▁色 120
▁離れ 120
っと 120
ない 120
ギ 120
名 120
性 120
着 120
ense 119
ying 119
▁ind 119
▁moving 119
▁yesterday 119
▁今度 119
▁似 119
▁入り 119
▁小さな 119
▁星 119
▁母親 119
▁移 119
▁過 119
▁開け 119
は 119
ビー 119
マン 119
代 119
ices 118
▁captain 118
▁cool 118
▁sex 118
▁town 118
▁train 118
▁わかり 118
▁一体 118
▁乗 118
▁呼び 118
▁失 118
▁政府 118
▁最近 118
▁調査 118
▁連 118
▁選択 118
▁amazing 117
▁deep 117
▁dog 117
▁nobody 117
▁すみ 117
▁もらう 117
▁コース 117
▁恋 117
▁戻る 117
▁日本 117
▁野郎 117
▁階 117
念 117
料 117
ook 116
ope 116
▁0 116
▁adv 116
▁ain 116
▁alright 116
▁cold 116
▁data 116
▁goes 116
▁『 116
▁め 116
▁優 116
▁員 116
▁対し 116
▁書い 116
▁未 116
▁線 116
▁記録 116
▁買っ 116
想 116
P 115
mm 115
ura 115
▁Institute 115
▁min 115
▁perfect 115
▁state 115
▁』 115
▁修 115
▁制 115
▁化学 115
▁成功 115
▁捕 115
ープ 115
外 115
機 115
続 115
▁contact 114
▁follow 114
▁ir 114
▁murder 114
▁ted 114
▁さえ 114
▁みる 114
▁カメラ 114
所 114
方 114
ants 113
oth 113
ted 113
▁boss 113
▁cat 113
▁ev 113
▁form 113
▁hot 113
▁promise 113
▁seem 113
▁なし 113
▁ウィ 113
▁北 113
▁半 113
▁単 113
▁失礼 113
▁左 113
員 113
族 113
ame 112
▁ant 112
▁rid 112
▁shop 112
▁なぁ 112
▁アー 112
▁テレビ 112
▁影響 112
▁犯罪 112
書 112
能 112
ub 111
▁cal 111
▁happening 111
▁leg 111
▁send 111
▁serious 111
▁shoot 111
▁super 111
▁交 111
▁元気 111
▁右 111
▁遊 111
ゲ 111
ーター 111
産 111
ign 110
su 110
▁ann 110
▁fast 110
▁mo 110
▁ob 110
▁somewhere 110
▁space 110
▁トラ 110
▁年間 110
▁流 110
▁週間 110
害 110
ats 109
ble 109
ear 109
ny 109
▁learn 109
▁longer 109
▁mor 109
▁needed 109
▁picture 109
▁self 109
▁あら 109
▁あんな 109
▁もらっ 109
▁スター 109
▁億 109
▁大事 109
▁従 109
▁意 109
▁普通 109
▁犯 109
▁立 109
▁経験 109
▁逮捕 109
ッシュ 109
レン 109
els 108
ped 108
ven 108
▁asking 108
▁hang 108
▁looked 108
▁single 108
▁worked 108
▁” 108
▁やっぱり 108
▁予 108
▁全然 108
▁映画 108
▁服 108
▁残念 108
▁状態 108
▁真実 108
▁知 108
▁聞こえ 108
かり 108
ニア 108
M 107
co 107
ences 107
ined 107
ound 107
way 107
▁ill 107
▁マン 107
▁必ず 107
▁戦争 107
▁終わっ 107
▁起こっ 107
▁配 107
ンチ 107
元 107
女 107
go 106
old 106
uce 106
▁16 106
▁ac 106
▁changed 106
▁park 106
▁pat 106
▁イン 106
▁ハッ 106
▁時代 106
▁社 106
▁結 106
ッグ 106
ma 105
▁chief 105
▁col 105
▁eh 105
▁monster 105
▁turned 105
▁yours 105
▁やれ 105
▁らしい 105
▁待ち 105
▁来い 105
▁渡 105
▁立ち 105
▁警官 105
▁近 105
▁追 105
▁野 105
がる 105
前 105
R 104
ont 104
▁; 104
▁In 104
▁agent 104
▁crime 104
▁dangerous 104
▁equ 104
▁evidence 104
▁imagine 104
▁main 104
▁project 104
▁さま 104
▁ほとんど 104
▁ツ 104
▁今回 104
▁台 104
▁呼ば 104
▁教育 104
▁病 104
▁考える 104
らし 104
品 104
質 104
ari 103
▁2016 103
▁ball 103
▁hair 103
▁mis 103
▁pe 103
▁program 103
▁record 103
▁short 103
▁sick 103
▁tak 103
▁なあ 103
▁作る 103
▁被害 103
▁走 103
▁過去 103
しかっ 103
格 103
cause 102
ict 102
une 102
yp 102
▁mark 102
▁pull 102
▁questions 102
▁ran 102
▁rather 102
▁rep 102
▁shouldn 102
▁teacher 102
▁リー 102
▁今夜 102
▁使い 102
▁初 102
▁医者 102
▁残 102
撃 102
ited 101
oke 101
▁adm 101
▁anybody 101
▁cor 101
▁eye 101
▁meeting 101
▁mod 101
▁party 101
▁piece 101
▁public 101
▁sol 101
▁suspect 101
▁ぐらい 101
▁ショ 101
▁ドア 101
▁フォ 101
▁守る 101
▁平 101
▁携帯 101
▁決め 101
▁消え 101
▁能力 101
▁試 101
▁追い 101
張 101
水 101
見 101
D 100
O 100
aki 100
amp 100
form 100
ji 100
▁K 100
▁cell 100
▁fac 100
▁field 100
▁lady 100
▁おまえ 100
▁すい 100
▁マジ 100
▁レイ 100
▁レベル 100
▁使う 100
▁切 100
▁反 100
▁在 100
▁客 100
▁届 100
▁常 100
▁応 100
▁改 100
▁父親 100
▁独 100
▁生物 100
▁病気 100
▁知る 100
▁石 100
▁経 100
ょ 100
ザー 100
題 100
acy 99
cl 99
ys 99
▁bed 99
▁cop 99
▁creat 99
▁dark 99
▁del 99
▁drive 99
▁ro 99
▁study 99
▁さらに 99
▁休 99
▁女の子 99
▁姿 99
▁断 99
▁聞く 99
▁記憶 99
けれ 99
ミー 99
ルド 99
一 99
利 99
解 99
ering 98
itch 98
nd 98
rib 98
te 98
▁glad 98
▁government 98
▁poor 98
▁sat 98
▁scared 98
▁sky 98
▁student 98
▁techn 98
▁within 98
▁乗っ 98
▁個 98
▁助 98
▁文 98
▁終 98
▁経済 98
▁聞か 98
▁送っ 98
がり 98
命 98
ff 97
ots 97
ton 97
▁Department 97
▁The 97
▁across 97
▁count 97
▁def 97
▁fre 97
▁impossible 97
▁process 97
▁simple 97
▁おっ 97
▁主義 97
▁判 97
▁利用 97
▁取 97
▁品 97
▁想像 97
▁戦い 97
▁特別 97
▁眠 97
▁赤 97
▁院 97
まる 97
意 97
身 97
day 96
ional 96
omic 96
▁13 96
▁boys 96
▁fu 96
▁machine 96
▁ste 96
▁く 96
▁クリス 96
▁ユ 96
▁冷 96
▁理 96
▁等 96
▁貴方 96
リック 96
味 96
士 96
ming 95
▁14 95
▁2015 95
▁camp 95
▁cross 95
▁during 95
▁hate 95
▁health 95
▁inc 95
▁kn 95
▁list 95
▁wr 95
▁だめ 95
▁まさか 95
▁報告 95
▁大統領 95
▁座っ 95
▁弁護 95
▁接 95
▁盗 95
▁返 95
▁面 95
位 95
月 95
ational 94
ony 94
osan 94
▁calm 94
▁comm 94
▁completely 94
▁draw 94
▁effect 94
▁frank 94
▁gre 94
▁himself 94
▁lab 94
▁mot 94
▁risk 94
▁seeing 94
▁sell 94
▁おけ 94
▁たぶん 94
▁ちゃう 94
▁とにかく 94
▁タイ 94
▁効果 94
▁医 94
▁図 94
▁売 94
▁完全 94
▁居る 94
▁帰 94
▁活動 94
▁産 94
▁目的 94
▁紹介 94
▁責任 94
▁起 94
▁間違っ 94
▁首 94
▁高い 94
エル 94
タン 94
ブル 94
問 94
囲 94
文 94
込み 94
ato 93
ones 93
ume 93
▁ele 93
▁fighting 93
▁ke 93
▁kept 93
▁mir 93
▁ones 93
▁target 93
▁technology 93
▁とこ 93
▁ジュ 93
▁事故 93
▁互い 93
▁汚 93
▁減 93
▁脱 93
▁防 93
▁頂 93
付 93
向 93
滅 93
覚 93
pp 92
ult 92
▁born 92
▁build 92
▁figure 92
▁im 92
▁med 92
▁perhaps 92
▁playing 92
▁rob 92
▁seriously 92
▁つか 92
▁ブラ 92
▁リン 92
▁以前 92
▁全く 92
▁変わっ 92
▁就 92
▁正しい 92
▁氏 92
▁片 92
▁種 92
▁罪 92
アン 92
ケット 92
ピー 92
ラム 92
色 92
開 92
ima 91
ole 91
orn 91
ues 91
ular 91
▁example 91
▁forward 91
▁hun 91
▁key 91
▁married 91
▁near 91
▁track 91
▁treat 91
▁voice 91
▁〈 91
▁ぶ 91
▁ダイ 91
▁ニュース 91
▁ハイ 91
▁弟 91
▁怖い 91
▁捨て 91
▁推 91
▁構 91
▁決 91
▁移動 91
▁背 91
▁自然 91
▁若 91
▁適 91
後 91
然 91
状 91
素 91
重 91
野 91
ith 90
rop 90
▁ahead 90
▁bi 90
▁catch 90
▁detective 90
▁fil 90
▁instead 90
▁known 90
▁pen 90
▁ra 90
▁smell 90
▁street 90
▁takes 90
▁♫ 90
▁かなり 90
▁やろう 90
▁エネルギー 90
▁働い 90
▁器 90
▁増 90
▁市 90
▁町 90
▁破 90
▁絵 90
▁負 90
▁転 90
▁速 90
▁骨 90
ぁ 90
ィ 90
付け 90
口 90
屋 90
木 90
止 90
験 90
ages 89
awa 89
ered 89
eter 89
ging 89
iy 89
▁allow 89
▁dev 89
▁dig 89
▁mat 89
▁sur 89
▁〉 89
▁ヶ月 89
▁両親 89
▁伝 89
▁座 89
▁早 89
▁権 89
▁熱 89
▁現場 89
▁破壊 89
▁装置 89
▁長い 89
チャ 89
刻 89
民 89
ased 88
ium 88
▁age 88
▁arr 88
▁la 88
▁leaving 88
▁personal 88
▁relationship 88
▁seven 88
▁song 88
▁strange 88
▁talked 88
▁works 88
▁− 88
▁る 88
▁キミ 88
▁刺 88
▁南 88
▁土 88
▁少 88
▁島 88
▁症 88
▁置い 88
▁製 88
▁部分 88
▁隊 88
たい 88
つけ 88
ポ 88
化 88
流 88
ains 87
ait 87
bo 87
eth 87
ich 87
ient 87
ified 87
ily 87
med 87
my 87
orm 87
▁17 87
▁24 87
▁area 87
▁calling 87
▁cover 87
▁fell 87
▁hide 87
▁obser 87
▁patient 87
▁support 87
▁weeks 87
▁x 87
▁すま 87
▁そいつ 87
▁とおり 87
▁倒 87
▁号 87
▁弱 87
▁止 87
▁遠 87
▁鍵 87
▁馬鹿 87
わる 87
ション 87
井 87
取 87
形 87
ards 86
ect 86
ged 86
ians 86
ivers 86
ract 86
▁Tech 86
▁bitch 86
▁difficult 86
▁early 86
▁gold 86
▁however 86
▁hy 86
▁prop 86
▁search 86
▁weren 86
▁worried 86
▁クラ 86
▁続 86
▁逃 86
▁都 86
オン 86
パー 86
ランド 86
ーション 86
去 86
合い 86
在 86
式 86
; 85
au 85
dy 85
ina 85
q 85
▁access 85
▁became 85
▁bill 85
▁com 85
▁eng 85
▁giving 85
▁lea 85
▁music 85
▁product 85
▁reach 85
▁sal 85
▁vir 85
▁くん 85
▁すごく 85
▁そりゃ 85
▁っす 85
▁カー 85
▁ティ 85
▁去 85
▁壁 85
▁持つ 85
▁支 85
▁曲 85
▁現実 85
▁生命 85
▁西 85
▁近く 85
▁退 85
▁逆 85
▁那 85
▁面白い 85
▁館 85
ert 84
ree 84
ric 84
unk 84
ward 84
▁ak 84
▁appro 84
▁bag 84
▁bomb 84
▁computer 84
▁entire 84
▁idiot 84
▁mess 84
▁road 84
▁situation 84
▁tv 84
▁visit 84
▁おり 84
▁つな 84
▁メール 84
▁会え 84
▁入る 84
▁刑事 84
▁動き 84
▁収 84
▁守 84
▁幸せ 84
▁強い 84
▁欲 84
▁視 84
▁量 84
ティー 84
フィ 84
傷 84
端 84
cle 83
ese 83
ination 83
omm 83
tern 83
ute 83
▁300 83
▁< 83
▁develop 83
▁exc 83
▁fix 83
▁lie 83
▁middle 83
▁particular 83
▁present 83
▁third 83
▁val 83
▁whether 83
▁さっき 83
▁もらい 83
▁ジャック 83
▁ブック 83
▁価値 83
▁切り 83
▁向かっ 83
▁失敗 83
▁学生 83
▁実験 83
▁引 83
▁打 83
▁治療 83
▁浮 83
▁深 83
▁特に 83
▁生徒 83
▁男性 83
▁秒 83
▁論 83
▁離 83
放 83
論 83
進 83
除 83
cious 82
fully 82
gh 82
ink 82
land 82
▁> 82
▁add 82
▁aw 82
▁blue 82
▁commun 82
▁dinner 82
▁ext 82
▁fault 82
▁felt 82
▁history 82
▁north 82
▁offic 82
▁tom 82
▁じ 82
▁なれ 82
▁やめろ 82
▁クロ 82
▁チャンス 82
▁ヴァ 82
▁原 82
▁子ども 82
▁悲 82
▁村 82
▁楽 82
▁残り 82
▁疲れ 82
▁監視 82
▁良かっ 82
かし 82
実 82
川 82
星 82
落 82
速 82
gan 81
sc 81
▁21 81
▁bell 81
▁compl 81
▁cost 81
▁eight 81
▁foot 81
▁killing 81
▁message 81
▁organ 81
▁rich 81
▁sing 81
▁watching 81
▁write 81
▁させ 81
▁じゃん 81
▁付け 81
▁代わり 81
▁借り 81
▁本気 81
▁比 81
▁管理 81
▁隠し 81
▁青 81
▁飛行 81
げる 81
つい 81
ウン 81
信 81
原 81
島 81
門 81
aces 80
ield 80
iko 80
ote 80
pect 80
very 80
▁burn 80
▁careful 80
▁cute 80
▁cy 80
▁dollars 80
▁elect 80
▁fear 80
▁given 80
▁ii 80
▁killer 80
▁learned 80
▁lim 80
▁match 80
▁problems 80
▁shall 80
▁station 80
▁unless 80
▁window 80
▁york 80
▁乗り 80
▁以外 80
▁使わ 80
▁可 80
▁唯一 80
▁大切 80
▁明らか 80
▁期待 80
▁枚 80
▁森 80
▁残っ 80
▁気分 80
▁深い 80
▁系 80
▁都市 80
▁頑張 80
▁駄目 80
▁高校 80
パ 80
得 80
断 80
正 80
死 80
約 80
aka 79
app 79
br 79
ior 79
ruct 79
umb 79
uz 79
wh 79
▁bat 79
▁box 79
▁create 79
▁energy 79
▁exam 79
▁island 79
▁ret 79
▁ways 79
▁weird 79
▁うわ 79
▁しまい 79
▁そっち 79
▁ブル 79
▁ボス 79
▁ラン 79
▁主人 79
▁事実 79
▁住ん 79
▁你 79
▁式 79
▁看 79
▁立て 79
▁義 79
▁見つける 79
▁負け 79
▁資 79
▁難しい 79
ゼ 79
フェ 79
末 79
棒 79
白 79
路 79
難 79
atch 78
atic 78
etic 78
ible 78
ipp 78
itive 78
osh 78
▁built 78
▁bull 78
▁clothes 78
▁fair 78
▁ground 78
▁magic 78
▁normal 78
▁numbers 78
▁quickly 78
▁sen 78
▁success 78
▁summon 78
▁travel 78
▁あそこ 78
▁おお 78
▁しっかり 78
▁ステ 78
▁パン 78
▁ボク 78
▁企業 78
▁命令 78
▁局 78
▁希望 78
▁意識 78
▁東 78
▁裁判 78
▁貴 78
▁飲み 78
で 78
キー 78
クト 78
ヌ 78
モン 78
来 78
送 78
集 78
ending 77
itt 77
ology 77
ream 77
ured 77
▁J 77
▁arm 77
▁bank 77
▁beg 77
▁bird 77
▁date 77
▁force 77
▁funny 77
▁hour 77
▁missing 77
▁pack 77
▁polit 77
▁scient 77
▁social 77
▁throw 77
▁ts 77
▁ウェ 77
▁動物 77
▁向け 77
▁周 77
▁基 77
▁感情 77
▁政治 77
▁注 77
▁燃 77
▁疑 77
▁社長 77
▁精神 77
▁素 77
▁総 77
▁職 77
▁腕 77
▁触 77
▁貧 77
▁赤ちゃん 77
なる 77
サー 77
存 77
感 77
界 77
福 77
要 77
車 77
食 77
L 76
aring 76
ify 76
ime 76
ored 76
ott 76
ple 76
ump 76
ural 76
▁-- 76
▁accident 76
▁bas 76
▁beginning 76
▁const 76
▁exper 76
▁fish 76
▁general 76
▁green 76
▁humans 76
▁meant 76
▁science 76
▁sweet 76
▁threat 76
▁ve 76
▁つく 76
▁どちら 76
▁ゆ 76
▁シン 76
▁ブロ 76
▁吸 76
▁多分 76
▁後ろ 76
▁怒 76
▁振 76
▁教授 76
▁案 76
▁死に 76
▁毎日 76
▁番号 76
▁頼 76
ウス 76
タル 76
マー 76
ールド 76
父 76
線 76
美 76
込む 76
aster 75
eg 75
ental 75
ta 75
▁address 75
▁battle 75
▁consider 75
▁courses 75
▁exist 75
▁inf 75
▁lock 75
▁month 75
▁soul 75
▁suddenly 75
▁terrible 75
▁video 75
▁あらゆる 75
▁ひどい 75
▁バイ 75
▁也 75
▁低 75
▁円 75
▁分子 75
▁告 75
▁安 75
▁帰る 75
▁引っ 75
▁弾 75
▁恐 75
▁横 75
▁機械 75
▁気付 75
▁絶 75
▁記 75
▁課 75
▁魔 75
お 75
らす 75
備 75
器 75
抜 75
殺 75
組 75
ax 74
fer 74
ired 74
vel 74
▁1000 74
▁cap 74
▁fore 74
▁ourselves 74
▁planet 74
▁prison 74
▁quiet 74
▁saved 74
▁university 74
▁van 74
▁victim 74
▁wonderful 74
▁おかげ 74
▁たった 74
▁アイデア 74
▁サラ 74
▁センター 74
▁ター 74
▁ビデオ 74
▁冗談 74
▁取引 74
▁州 74
▁押し 74
▁洗 74
▁異 74
▁細胞 74
▁肉 74
▁裏 74
▁襲 74
▁買い 74
▁近づ 74
かい 74
イド 74
ョン 74
リスト 74
リング 74
了 74
好 74
染 74
示 74
科 74
ney 73
oint 73
ower 73
ren 73
▁carry 73
▁certain 73
▁difference 73
▁fin 73
▁focus 73
▁hmm 73
▁luck 73
▁prot 73
▁rain 73
▁share 73
▁trip 73
▁weapon 73
▁てろ 73
▁よろしく 73
▁ビル 73
▁マイク 73
▁ロボット 73
▁付き 73
▁任せ 73
▁割 73
▁怖 73
▁本物 73
▁歴史 73
▁黙っ 73
報 73
曜 73
等 73
継 73
護 73
週 73
akes 72
ann 72
gy 72
ister 72
work 72
▁According 72
▁ben 72
▁common 72
▁expl 72
▁honey 72
▁ken 72
▁paper 72
▁phil 72
▁pres 72
▁sim 72
▁stopped 72
▁suit 72
▁worth 72
▁えッ 72
▁スタ 72
▁バス 72
▁ホテル 72
▁住 72
▁使用 72
▁保護 72
▁停 72
▁判断 72
▁古い 72
▁団 72
▁失っ 72
▁嫌い 72
▁帰り 72
▁料理 72
▁極 72
▁機能 72
▁狙 72
▁組 72
▁色々 72
▁見つ 72
▁運転 72
▁隠 72
▁電子 72
▁静か 72
▁飲ん 72
シャ 72
ッキー 72
跡 72
ata 71
ather 71
bit 71
cing 71
ew 71
nt 71
ster 71
▁$ 71
▁2015-2016 71
▁Course 71
▁hotel 71
▁jun 71
▁mart 71
▁oper 71
▁peace 71
▁scene 71
▁sch 71
▁sensei 71
▁sold 71
▁sword 71
▁いま 71
▁おはよう 71
▁たって 71
▁予定 71
▁出す 71
▁区 71
▁変化 71
▁太陽 71
▁成長 71
▁新た 71
▁物質 71
▁皮 71
▁結構 71
▁観察 71
▁誘 71
▁財 71
▁非 71
ょう 71
わり 71
ーナ 71
側 71
志 71
望 71
歩 71
cept 70
cut 70
ix 70
ock 70
row 70
tle 70
▁base 70
▁coll 70
▁experience 70
▁fail 70
▁forever 70
▁grow 70
▁loved 70
▁medical 70
▁miles 70
▁often 70
▁rock 70
▁sad 70
▁sin 70
▁whoa 70
▁さぁ 70
▁ちょうど 70
▁ギャ 70
▁シェ 70
▁デザイン 70
▁パー 70
▁中国 70
▁人類 70
▁会う 70
▁奪 70
▁妹 70
▁寄 70
▁工 70
▁当然 70
▁悪く 70
▁死体 70
▁求め 70
▁潜 70
▁物理 70
▁窓 70
▁約 70
▁続ける 70
▁自己 70
▁複雑 70
▁訳 70
▁電気 70
ゃ 70
イス 70
ファ 70
情 70
服 70
材 70
足 70
転 70
ances 69
ared 69
bi 69
ek 69
ised 69
ished 69
lo 69
omp 69
unt 69
▁2022 69
▁absolutely 69
▁account 69
▁aff 69
▁anywhere 69
▁begin 69
▁christ 69
▁director 69
▁econ 69
▁feels 69
▁feet 69
▁honest 69
▁host 69
▁laugh 69
▁mer 69
▁speed 69
▁store 69
▁stud 69
▁type 69
▁yu 69
▁あッ 69
▁っけ 69
▁みろ 69
▁ハン 69
▁人物 69
▁信用 69
▁側 69
▁夏 69
▁容疑 69
▁済 69
▁爆弾 69
▁素敵 69
▁限り 69
▁頼ん 69
▁飛び 69
かる 69
フォ 69
ャ 69
ョ 69
候 69
持 69
良 69
" 68
ana 68
ately 68
iff 68
imate 68
ret 68
uki 68
▁FBI 68
▁School 68
▁Y 68
▁bottom 68
▁except 68
▁hol 68
▁jim 68
▁mouth 68
▁natural 68
▁officer 68
▁places 68
▁pur 68
▁shin 68
▁sitting 68
▁straight 68
▁ur 68
▁wake 68
▁いただ 68
▁おかしい 68
▁まったく 68
▁まるで 68
▁アフリカ 68
▁コー 68
▁不明 68
▁例えば 68
▁個人 68
▁副 68
▁和 68
▁専門 68
▁少なく 68
▁少年 68
▁師 68
▁武器 68
▁流れ 68
▁自殺 68
▁行為 68
▁詳 68
▁这 68
▁送 68
▁遅 68
▁遺伝 68
▁頑張っ 68
ウェ 68
主 68
室 68
崎 68
置 68
象 68
越 68
通 68
造 68
達 68
ason 67
ider 67
olog 67
ping 67
▁beat 67
▁continue 67
▁correct 67
▁dest 67
▁hor 67
▁investigation 67
▁listening 67
▁mass 67
▁mention 67
▁pan 67
▁pers 67
▁surv 67
▁table 67
▁uncle 67
▁view 67
▁かかっ 67
▁かかる 67
▁む 67
▁テスト 67
▁古 67
▁撮 67
▁材料 67
▁果 67
▁注意 67
▁立っ 67
▁見ろ 67
▁降 67
▁降り 67
▁隣 67
▁雨 67
コン 67
ヒ 67
ーカー 67
声 67
底 67
段 67
画 67
直 67
装 67
込ま 67
aduate 66
aking 66
cc 66
ends 66
ges 66
iting 66
ned 66
oto 66
room 66
tain 66
▁agre 66
▁billion 66
▁collect 66
▁dear 66
▁device 66
▁earlier 66
▁hero 66
▁huge 66
▁investig 66
▁low 66
▁mistake 66
▁path 66
▁ry 66
▁training 66
▁— 66
▁ゆっくり 66
▁わし 66
▁クレ 66
▁チェ 66
▁メッセージ 66
▁ヨ 66
▁仮 66
▁位置 66
▁勉強 66
▁召喚 66
▁向こう 66
▁変わら 66
▁大きく 66
▁思え 66
▁旅 66
▁根 66
▁活 66
▁満 66
▁犠牲 66
▁礼 66
▁腹 66
▁逃げる 66
▁難 66
づ 66
クシー 66
略 66
?! 65
acking 65
ality 65
aly 65
bs 65
ichi 65
ising 65
nam 65
ruction 65
ution 65
▁V 65
▁bel 65
▁bus 65
▁busy 65
▁caught 65
▁cause 65
▁cry 65
▁dance 65
▁eating 65
▁enc 65
▁floor 65
▁hel 65
▁moved 65
▁nine 65
▁object 65
▁pol 65
▁psych 65
▁society 65
▁states 65
▁weak 65
▁いろいろ 65
▁くそ 65
▁ウソ 65
▁キャン 65
▁グループ 65
▁フラン 65
▁リスト 65
▁兄弟 65
▁処 65
▁原因 65
▁反応 65
▁地域 65
▁大人 65
▁当時 65
▁御 65
▁思 65
▁戻 65
▁検査 65
▁構造 65
▁無駄 65
▁突 65
▁許し 65
▁警 65
▁農 65
▁隠れ 65
▁飛 65
▁髪 65
こう 65
ちゃ 65
リス 65
先 65
別 65
寄 65
換 65
測 65
空 65
ency 64
ks 64
oms 64
ps 64
we 64
▁arrest 64
▁comb 64
▁deb 64
▁gar 64
▁manag 64
▁mill 64
▁national 64
▁peter 64
▁tor 64
▁いれ 64
▁け 64
▁つき 64
▁クラス 64
▁ネット 64
▁プログラム 64
▁一部 64
▁与える 64
▁以 64
▁以来 64
▁仲 64
▁作品 64
▁傷つけ 64
▁別れ 64
▁勝手 64
▁参加 64
▁太 64
▁川 64
▁担当 64
▁模 64
▁民 64
▁無く 64
▁若い 64
▁苦し 64
▁訪 64
▁誤 64
▁運命 64
ぇ 64
する 64
ヴァ 64
光 64
出さ 64
告 64
和 64
平 64
極 64
種 64
ashi 63
ball 63
cial 63
inary 63
ization 63
ley 63
oring 63
uke 63
▁american 63
▁bought 63
▁broke 63
▁charge 63
▁dragon 63
▁fo 63
▁forgive 63
▁lots 63
▁pal 63
▁plane 63
▁prod 63
▁putting 63
▁service 63
▁spirit 63
▁suffer 63
▁terror 63
▁typ 63
▁village 63
▁walking 63
▁wood 63
▁ご覧 63
▁すでに 63
▁ちょ 63
▁てっ 63
▁まさに 63
▁アンタ 63
▁ジェイ 63
▁ドラゴン 63
▁ボール 63
▁モンスター 63
▁余 63
▁使え 63
▁全体 63
▁啊 63
▁完璧 63
▁戦う 63
▁持 63
▁探す 63
▁毒 63
▁爆発 63
▁留 63
▁盗ん 63
▁突き 63
▁結局 63
▁聖 63
▁話せ 63
▁関する 63
▁音楽 63
ッカー 63
ータ 63
介 63
合わせ 63
失 63
宮 63
王 63
発 63
職 63
術 63
ained 62
bon 62
ichan 62
ild 62
▁/ 62
▁choose 62
▁code 62
▁cow 62
▁daddy 62
▁emb 62
▁feelings 62
▁hall 62
▁ident 62
▁image 62
▁interested 62
▁involved 62
▁kur 62
▁ms 62
▁position 62
▁professor 62
▁sea 62
▁sil 62
▁spr 62
▁stories 62
▁turns 62
▁witness 62
▁worse 62
▁いったい 62
▁おか 62
▁だら 62
▁テロ 62
▁ハー 62
▁信頼 62
▁刑務 62
▁各 62
▁呼ぶ 62
▁型 62
▁微 62
▁急い 62
▁抱 62
▁更 62
▁痛 62
▁確 62
▁置 62
▁英 62
▁落ち着い 62
▁読ん 62
▁謝 62
▁辞 62
▁食事 62
▁鳥 62
ぽ 62
メント 62
児 62
属 62
調 62
谷 62
ater 61
book 61
ended 61
ention 61
rew 61
time 61
vers 61
▁23 61
▁60 61
▁amount 61
▁center 61
▁definitely 61
▁environment 61
▁following 61
▁gener 61
▁hasn 61
▁hundred 61
▁imag 61
▁interview 61
▁lying 61
▁mi 61
▁nat 61
▁network 61
▁post 61
▁private 61
▁smart 61
▁squ 61
▁starting 61
▁tax 61
▁united 61
▁すぎる 61
▁もらえ 61
▁コンピュータ 61
▁ザ 61
▁任務 61
▁偽 61
▁建 61
▁映像 61
▁核 61
▁毎 61
▁申し 61
▁痛い 61
▁登 61
▁繋 61
▁聞け 61
▁聴 61
▁胸 61
▁補 61
▁閉 61
▁雇 61
▁食べる 61
▁魚 61
った 61
スタ 61
争 61
令 61
新 61
衆 61
請 61
ien 60
laughter 60
ori 60
▁Research 60
▁University 60
▁accept 60
▁army 60
▁camera 60
▁fool 60
▁helped 60
▁ideas 60
▁kim 60
▁market 60
▁opt 60
▁passed 60
▁respect 60
▁sand 60
▁separ 60
▁skin 60
▁stri 60
▁west 60
▁あたし 60
▁いくら 60
▁もっ 60
▁オリ 60
▁何処 60
▁作業 60
▁働き 60
▁到 60
▁地下 60
▁心臓 60
▁打ち 60
▁抜 60
▁文化 60
▁最悪 60
▁残し 60
▁申し訳 60
▁稼 60
▁細 60
▁耳 60
▁証明 60
▁誓 60
▁調 60
▁進化 60
▁選ん 60
っち 60
時 60
ada 59
gu 59
ief 59
ita 59
ival 59
no 59
ressed 59
▁angel 59
▁appear 59
▁bal 59
▁copy 59
▁cre 59
▁ear 59
▁enjoy 59
▁fly 59
▁fort 59
▁ign 59
▁imm 59
▁je 59
▁prov 59
▁push 59
▁realize 59
▁san 59
▁seconds 59
▁sym 59
▁totally 59
▁tree 59
▁walter 59
▁どっち 59
▁ぶり 59
▁アレ 59
▁タイム 59
▁デート 59
▁何故 59
▁動か 59
▁医療 59
▁司 59
▁変える 59
▁安定 59
▁怪 59
▁戻り 59
▁損 59
▁現れ 59
▁用意 59
▁統 59
▁署 59
▁良 59
▁設計 59
▁認め 59
▁酒 59
▁鉄 59
▁限 59
▁飲 59
かく 59
つき 59
なり 59
ぱ 59
ゥ 59
ガン 59
ッツ 59
倉 59
収 59
太 59
帯 59
応 59
母 59
毒 59
級 59
義 59
隊 59
achan 58
astic 58
cent 58
get 58
hy 58
ially 58
iny 58
ique 58
ounds 58
pe 58
uch 58
ude 58
ze 58
▁22 58
▁activ 58
▁bab 58
▁countries 58
▁crow 58
▁discuss 58
▁drug 58
▁employ 58
▁enemy 58
▁honor 58
▁immediately 58
▁incident 58
▁individual 58
▁lar 58
▁major 58
▁mission 58
▁movie 58
▁points 58
▁poss 58
▁roll 58
▁somehow 58
▁stage 58
▁wearing 58
▁たま 58
▁クラブ 58
▁世話 58
▁両 58
▁剣 58
▁取り組 58
▁壊 58
▁多い 58
▁恥 58
▁救う 58
▁散 58
▁楽しい 58
▁正確 58
▁決して 58
▁焼 58
▁物語 58
▁痛み 58
▁直接 58
▁種類 58
▁穴 58
▁突然 58
▁至 58
▁設 58
▁診 58
▁評価 58
▁足り 58
▁運動 58
▁邪魔 58
▁長く 58
▁黙 58
ニス 58
ホ 58
ーツ 58
世 58
十 58
善 58
資 58
郎 58
限 58
cy 57
ex 57
ey 57
fect 57
ga 57
ides 57
ject 57
key 57
lect 57
▁2000 57
▁35 57
▁80 57
▁Bi 57
▁america 57
▁ap 57
▁belong 57
▁blow 57
▁closer 57
▁command 57
▁complete 57
▁contin 57
▁decision 57
▁destroy 57
▁fit 57
▁gas 57
▁jud 57
▁justice 57
▁marriage 57
▁military 57
▁mm 57
▁pop 57
▁quick 57
▁seat 57
▁sens 57
▁serv 57
▁snow 57
▁stick 57
▁surprised 57
▁susp 57
▁ta 57
▁wind 57
▁あげる 57
▁おく 57
▁やっと 57
▁よい 57
▁シュ 57
▁ホーム 57
▁ミス 57
▁ルール 57
▁一方 57
▁値 57
▁先輩 57
▁制御 57
▁味 57
▁問 57
▁大きい 57
▁嬉しい 57
▁守っ 57
▁折 57
▁撃 57
▁晩 57
▁暴 57
▁業 57
▁正直 57
▁殿 57
▁渡し 57
▁祖 57
▁箱 57
▁精 57
▁行 57
▁規 57
▁覚 57
▁質 57
▁追跡 57
▁鏡 57
めて 57
シュ 57
スク 57
テン 57
制 57
則 57
否 57
官 57
布 57
視 57
証 57
陸 57
電 57
音 57
aph 56
eral 56
res 56
so 56
vent 56
yle 56
▁2018 56
▁500 56
▁africa 56
▁ang 56
▁attention 56
▁bro 56
▁civil 56
▁clos 56
▁especially 56
▁glass 56
▁global 56
▁guard 56
▁likely 56
▁mal 56
▁micro 56
▁nature 56
▁neck 56
▁remind 56
▁steal 56
▁suggest 56
▁vol 56
▁yam 56
▁yen 56
▁“ 56
▁いっぱい 56
▁しばらく 56
▁ウィル 56
▁グラ 56
▁サー 56
▁ショー 56
▁スペ 56
▁ズ 56
▁ピーター 56
▁プロジェクト 56
▁創造 56
▁動く 56
▁勘 56
▁危 56
▁参 56
▁喜 56
▁四 56
▁尾 56
▁巻き 56
▁幸 56
▁幼 56
▁惑星 56
▁想 56
▁我が 56
▁楽しみ 56
▁温 56
▁眼 56
▁美しい 56
▁落ち着 56
▁訓練 56
▁越 56
▁連中 56
イズ 56
バル 56
ラク 56
ントン 56
合っ 56
型 56
察 56
村 56
球 56
頭 56
額 56
20 55
K 55
aged 55
akun 55
cer 55
gle 55
ication 55
iving 55
ought 55
uring 55
▁Information 55
▁New 55
▁U 55
▁]。 55
▁ability 55
▁clearly 55
▁cops 55
▁cult 55
▁doubt 55
▁dying 55
▁fill 55
▁interest 55
▁jump 55
▁language 55
▁led 55
▁local 55
▁mag 55
▁named 55
▁paid 55
▁physical 55
▁pot 55
▁pret 55
▁react 55
▁robot 55
▁spent 55
▁standing 55
▁stat 55
▁supp 55
▁sy 55
▁truck 55
▁すん 55
▁みな 55
▁みよう 55
▁ダン 55
▁ニュー 55
▁ネットワーク 55
▁バイオ 55
▁ブラック 55
▁ページ 55
▁了解 55
▁位 55
▁兵 55
▁具 55
▁十 55
▁半分 55
▁嬢 55
▁定 55
▁対する 55
▁導 55
▁建築 55
▁得る 55
▁恐怖 55
▁手伝っ 55
▁捕まえ 55
▁支援 55
▁文字 55
▁様子 55
▁無事 55
▁猫 55
▁率 55
▁老 55
▁親父 55
▁講座 55
▁軽 55
▁違っ 55
▁障害 55
じめ 55
ッジ 55
メン 55
ヤー 55
出せ 55
合う 55
屈 55
慮 55
杯 55
減 55
計 55
負 55
院 55
gest 54
icate 54
icking 54
ints 54
itions 54
itting 54
llow 54
over 54
port 54
stairs 54
ury 54
used 54
▁199 54
▁70 54
▁breat 54
▁cancer 54
▁cards 54
▁created 54
▁criminal 54
▁decide 54
▁direct 54
▁dom 54
▁education 54
▁emot 54
▁enter 54
▁favorite 54
▁fir 54
▁hiding 54
▁incre 54
▁lucky 54
▁meaning 54
▁online 54
▁prof 54
▁scr 54
▁thinks 54
▁ver 54
▁wat 54
▁あん 54
▁たと 54
▁たろ 54
▁わざ 54
▁アナ 54
▁スク 54
▁デュ 54
▁ニューヨーク 54
▁ライン 54
▁上手く 54
▁創 54
▁効 54
▁取る 54
▁同様 54
▁墓 54
▁市場 54
▁平和 54
▁強く 54
▁意見 54
▁昼 54
▁暮らし 54
▁最終 54
▁望ん 54
▁決定 54
▁清 54
▁狂 54
▁田 54
▁百 54
▁瞬間 54
▁組み 54
▁育 54
▁艦 54
▁苦 54
▁規模 54
▁迷 54
▁連携 54
▁順 54
▁馬 54
▁驚 54
▁魂 54
▁魔法 54
マス 54
ンパ 54
助 54
取っ 54
因 54
坊 54
客 54
審 54
座 54
庫 54
根 54
石 54
節 54
話 54
酷 54
N 53
con 53
ials 53
iant 53
ids 53
nal 53
oshi 53
▁bigger 53
▁development 53
▁dreams 53
▁forgot 53
▁hu 53
▁ice 53
▁jesus 53
▁letter 53
▁math 53
▁member 53
▁mur 53
▁names 53
▁recently 53
▁row 53
▁rules 53
▁simply 53
▁slow 53
▁south 53
▁spread 53
▁subject 53
▁syn 53
▁vers 53
▁viol 53
▁あー 53
▁いただき 53
▁まぁ 53
▁やあ 53
▁オン 53
▁スパイ 53
▁ナイフ 53
▁マル 53
▁入れる 53
▁切っ 53
▁助ける 53
▁包 53
▁反対 53
▁建物 53
▁情 53
▁授業 53
▁排 53
▁提供 53
▁昨夜 53
▁武 53
▁気づい 53
▁祈 53
▁紙 53
▁自動 53
▁被 53
▁要求 53
▁言える 53
▁話さ 53
▁貴様 53
▁貸し 53
▁迎え 53
▁追っ 53
▁週 53
▁違 53
▁遺 53
▁銀 53
▁銀行 53
▁靴 53
っかり 53
勝 53
域 53
敬 53
替え 53
権 53
築 53
習 53
過 53
V 52
abor 52
ester 52
gre 52
icy 52
ision 52
ius 52
ived 52
what 52
ya 52
▁197 52
▁198 52
▁DNA 52
▁aut 52
▁belie 52
▁broken 52
▁bye 52
▁color 52
▁cond 52
▁connect 52
▁demon 52
▁den 52
▁engine 52
▁feed 52
▁final 52
▁gal 52
▁holding 52
▁infl 52
▁loc 52
▁lunch 52
▁myster 52
▁neg 52
▁none 52
▁obviously 52
▁partic 52
▁patients 52
▁press 52
▁russ 52
▁site 52
▁swim 52
▁tem 52
▁till 52
▁trial 52
▁trick 52
▁ty 52
▁かわいい 52
▁そろそろ 52
▁クリ 52
▁グレ 52
▁パワー 52
▁リーダー 52
▁ロシア 52
▁丸 52
▁仕方 52
▁倍 52
▁基本 52
▁報 52
▁始める 52
▁孤 52
▁展 52
▁復 52
▁必 52
▁思い出し 52
▁息 52
▁手術 52
▁抗 52
▁条件 52
▁桜 52
▁歯 52
▁治 52
▁派 52
▁照 52
▁特殊 52
▁甘 52
▁英語 52
▁裏切 52
▁誕生 52
▁費 52
▁賢 52
▁踊 52
▁遅れ 52
▁金属 52
▁開い 52
▁類 52
▁驚く 52
くし 52
てる 52
バイ 52
プル 52
任 52
戦 52
様 52
港 52
痕 52
程 52
近 52
釈 52
離 52
ability 51
ails 51
ases 51
bed 51
den 51
ha 51
ilities 51
izing 51
me 51
mer 51
osed 51
oss 51
rel 51
▁194 51
▁angry 51
▁ast 51
▁bath 51
▁board 51
▁desc 51
▁finish 51
▁games 51
▁gather 51
▁id 51
▁join 51
▁jour 51
▁kir 51
▁likes 51
▁nar 51
▁notice 51
▁planning 51
▁rad 51
▁rom 51
▁systems 51
▁tel 51
▁tele 51
▁term 51
▁themselves 51
▁thr 51
▁tool 51
▁─ 51
▁ぁ 51
▁こんにちは 51
▁とい 51
▁なれる 51
▁はっきり 51
▁サム 51
▁マイル 51
▁世紀 51
▁亡くなっ 51
▁利 51
▁午 51
▁故 51
▁暴力 51
▁望み 51
▁沢山 51
▁発動 51
▁示し 51
▁聞こえる 51
▁許 51
▁許可 51
▁買 51
▁距離 51
▁集め 51
ずか 51
ォ 51
クス 51
么 51
教 51
蔵 51
衣 51
迫 51
震 51
atter 50
ature 50
der 50
face 50
imes 50
inct 50
ipped 50
ires 50
ki 50
place 50
ration 50
vation 50
▁Systems 50
▁apartment 50
▁aware 50
▁boyfriend 50
▁coffee 50
▁damage 50
▁disappeared 50
▁dude 50
▁explos 50
▁heavy 50
▁helping 50
▁itself 50
▁lived 50
▁mama 50
▁moon 50
▁request 50
▁river 50
▁teach 50
▁tough 50
▁transfer 50
▁vis 50
▁| 50
▁いやいや 50
▁それぞれ 50
▁やがっ 50
▁アリ 50
▁インド 50
▁キー 50
▁バン 50
▁パーティー 50
▁上げ 50
▁並 50
▁他人 50
▁付 50
▁信 50
▁免 50
▁周り 50
▁対処 50
▁将来 50
▁少女 50
▁描 50
▁救っ 50
▁最大 50
▁東工大 50
▁機会 50
▁歩い 50
▁画像 50
▁界 50
▁羽 50
▁証言 50
▁読み 50
▁警備 50
▁起こし 50
▁近い 50
▁部下 50
▁酸 50
▁雪 50
▁願 50
▁香 50
ガー 50
ベル 50
ラル 50
ヴィ 50
勢 50
境 50
壊 50
徴 50
掛 50
板 50
議 50
軍 50
B 49
aced 49
asa 49
ceed 49
ensive 49
han 49
iel 49
ishing 49
mon 49
ples 49
ung 49
usion 49
▁90 49
▁Pro 49
▁although 49
▁apologize 49
▁assist 49
▁books 49
▁capt 49
▁chem 49
▁china 49
▁church 49
▁confir 49
▁convin 49
▁est 49
▁failed 49
▁favor 49
▁gentlemen 49
▁hole 49
▁kick 49
▁kiss 49
▁liked 49
▁locked 49
▁mil 49
▁mrs 49
▁offer 49
▁opportunity 49
▁plant 49
▁poison 49
▁requ 49
▁ride 49
▁shir 49
▁starts 49
▁surely 49
▁tea 49
▁thousand 49
▁tim 49
▁whoever 49
▁yo 49
▁のみ 49
▁まと 49
▁ガン 49
▁キャンパス 49
▁ゼロ 49
▁トラック 49
▁ペン 49
▁事務 49
▁今朝 49
▁会長 49
▁依頼 49
▁匂い 49
▁始まり 49
▁感染 49
▁数学 49
▁新聞 49
▁施設 49
▁有名 49
▁様々 49
▁標 49
▁権利 49
▁機関 49
▁欠 49
▁死亡 49
▁殺 49
▁波 49
▁演 49
▁知れ 49
▁神経 49
▁祭 49
▁装 49
▁訴 49
▁証 49
▁静 49
たり 49
っくり 49
なら 49
キング 49
ダム 49
ビア 49
ボン 49
レット 49
売 49
愛 49
景 49
替 49
衛 49
U 48
dom 48
fl 48
idence 48
ike 48
ility 48
pir 48
roll 48
ronic 48
uff 48
▁author 48
▁av 48
▁birthday 48
▁block 48
▁bother 48
▁closed 48
▁court 48
▁destroyed 48
▁fed 48
▁finished 48
▁grab 48
▁handle 48
▁hungry 48
▁instit 48
▁internet 48
▁joke 48
▁keeping 48
▁knowing 48
▁lay 48
▁non 48
▁older 48
▁partner 48
▁parts 48
▁pattern 48
▁perform 48
▁queen 48
▁quit 48
▁radio 48
▁realized 48
▁ring 48
▁sak 48
▁spl 48
▁strength 48
▁switch 48
▁trap 48
▁おじ 48
▁くだ 48
▁こい 48
▁せろ 48
▁とけ 48
▁はぁ 48
▁アイツ 48
▁イメージ 48
▁オフィス 48
▁ターン 48
▁チェック 48
▁ポイント 48
▁中心 48
▁事態 48
▁何者 48
▁信じる 48
▁健康 48
▁印 48
▁厳 48
▁呼吸 48
▁大好き 48
▁市民 48
▁忍 48
▁悪魔 48
▁手紙 48
▁撃た 48
▁整 48
▁既に 48
▁書き 48
▁此 48
▁短 48
▁砂 48
▁納 48
▁読 48
▁謎 48
▁辺 48
▁返し 48
▁通し 48
▁通信 48
▁避 48
▁部隊 48
▁開始 48
▁騒 48
▁驚い 48
ぉ 48
なっ 48
アー 48
スコ 48
ティン 48
ネル 48
リーン 48
ヴ 48
佐 48
宅 48
工 48
恵 48
捨て 48
洋 48
神 48
細 48
袋 48
輪 48
配 48
鎖 48
agi 47
aped 47
aves 47
erm 47
here 47
ident 47
iger 47
inc 47
iver 47
nn 47
ological 47
sa 47
▁Data 47
▁basically 47
▁breath 47
▁certainly 47
▁chair 47
▁companies 47
▁corner 47
▁coun 47
▁div 47
▁esc 47
▁escape 47
▁evening 47
▁figured 47
▁finding 47
▁fle 47
▁goodbye 47
▁hom 47
▁inj 47
▁large 47
▁lawyer 47
▁link 47
▁metal 47
▁page 47
▁port 47
▁pos 47
▁prec 47
▁pressure 47
▁prom 47
▁released 47
▁result 47
▁results 47
▁seemed 47
▁soft 47
▁species 47
▁ter 47
▁terr 47
▁thousands 47
▁tun 47
▁usually 47
▁wrote 47
▁≫ 47
▁おそらく 47
▁ちまっ 47
▁なるほど 47
▁ぼく 47
▁スイ 47
▁ビジネス 47
▁フランク 47
▁フレ 47
▁ベル 47
▁一致 47
▁们 47
▁会話 47
▁働く 47
▁八 47
▁友 47
▁国際 47
▁始まっ 47
▁家庭 47
▁席 47
▁幻 47
▁待つ 47
▁教師 47
▁校 47
▁楽し 47
▁正義 47
▁測 47
▁特定 47
▁疑問 47
▁科目 47
▁経営 47
▁給 47
▁自ら 47
▁行う 47
▁要る 47
▁資金 47
▁迷惑 47
▁過ごし 47
▁遺体 47
▁関連 47
やか 47
わら 47
ジー 47
ティング 47
デン 47
儀 47
効 47
吉 47
息 47
晩 47
査 47
油 47
税 47
策 47
罪 47
藤 47
返 47
遂 47
飯 47
ape 46
atory 46
ete 46
idge 46
ison 46
itan 46
ov 46
ss 46
uses 46
▁Book 46
▁according 46
▁began 46
▁ble 46
▁cab 46
▁college 46
▁conversation 46
▁dirty 46
▁disease 46
▁english 46
▁evil 46
▁expected 46
▁fa 46
▁faster 46
▁han 46
▁hum 46
▁innocent 46
▁intellig 46
▁lies 46
▁lif 46
▁losing 46
▁magn 46
▁memory 46
▁mountain 46
▁operation 46
▁organization 46
▁pet 46
▁pictures 46
▁pig 46
▁purpose 46
▁rare 46
▁surve 46
▁swe 46
▁tired 46
▁tra 46
▁vac 46
▁ya 46
▁いら 46
▁さっ 46
▁しかも 46
▁とる 46
▁アップ 46
▁スカイ 46
▁スコ 46
▁ナンバー 46
▁ヘイ 46
▁マシ 46
▁ロック 46
▁ヴィ 46
▁分野 46
▁勝ち 46
▁協 46
▁取り戻 46
▁吧 46
▁大き 46
▁宣 46
▁尋ね 46
▁戦っ 46
▁提 46
▁春 46
▁格 46
▁殴 46
▁氷 46
▁無かっ 46
▁無し 46
▁茶 46
▁複 46
▁見つかっ 46
▁試し 46
▁試合 46
▁課程 46
▁調子 46
▁起こ 46
▁身体 46
▁輝 46
▁避け 46
▁閉じ 46
▁関し 46
▁鳴 46
キュ 46
乱 46
交 46
具 46
劇 46
坂 46
守 46
延 46
札 46
渡 46
締 46
臓 46
覧 46
設 46
説 46
込め 46
aded 45
ancy 45
ession 45
gue 45
hip 45
iki 45
inate 45
ital 45
line 45
ough 45
ray 45
tery 45
umi 45
▁Chemistry 45
▁Materials 45
▁awesome 45
▁boat 45
▁cash 45
▁cho 45
▁community 45
▁cooper 45
▁crash 45
▁delicious 45
▁disappear 45
▁east 45
▁electric 45
▁ep 45
▁introd 45
▁jane 45
▁knife 45
▁mach 45
▁measure 45
▁memories 45
▁original 45
▁period 45
▁picked 45
▁pray 45
▁prepare 45
▁promised 45
▁ru 45
▁signal 45
▁terms 45
▁tour 45
▁truly 45
▁vision 45
▁warm 45
▁worst 45
▁あるいは 45
▁おいしい 45
▁けれど 45
▁しゃ 45
▁じい 45
▁もらえる 45
▁カル 45
▁コンピューター 45
▁ゼ 45
▁タイプ 45
▁ベッド 45
▁ミスター 45
▁リア 45
▁会議 45
▁動い 45
▁叫 45
▁差 45
▁忠 45
▁恐れ 45
▁抜け 45
▁捜し 45
▁掃除 45
▁援 45
▁撃っ 45
▁教会 45
▁旅行 45
▁書か 45
▁決まっ 45
▁消し 45
▁生み 45
▁真っ 45
▁空間 45
▁計算 45
▁賭 45
▁載 45
▁遊び 45
▁闘 45
▁革 45
▁飯 45
▁飲む 45
しゃ 45
つける 45
なし 45
ァ 45
ウト 45
トル 45
取り 45
少 45
岸 45
役 45
楽 45
索 45
肉 45
雄 45
類 45
amed 44
asing 44
atab 44
ety 44
oh 44
oun 44
ries 44
rog 44
ror 44
ulations 44
under 44
you 44
▁activate 44
▁based 44
▁bear 44
▁behavior 44
▁brothers 44
▁cars 44
▁caused 44
▁cells 44
▁character 44
▁covered 44
▁current 44
▁deliver 44
▁dont 44
▁famous 44
▁fant 44
▁gives 44
▁kinds 44
▁manager 44
▁mel 44
▁murdered 44
▁nats 44
▁odd 44
▁op 44
▁orders 44
▁pin 44
▁progress 44
▁sake 44
▁scary 44
▁sending 44
▁shows 44
▁suicide 44
▁suppose 44
▁tells 44
▁text 44
▁tokyo 44
▁turning 44
▁wear 44
▁writing 44
▁おう 44
▁おき 44
▁くせ 44
▁ぐ 44
▁さすが 44
▁とり 44
▁もた 44
▁イス 44
▁キロ 44
▁サービス 44
▁ジョー 44
▁トン 44
▁ドラ 44
▁ハハハ 44
▁パイ 44
▁ヘン 44
▁ン 44
▁傾 44
▁共通 44
▁出身 44
▁勇 44
▁卒業 44
▁可愛い 44
▁含 44
▁売っ 44
▁小さい 44
▁巨大 44
▁待 44
▁怒っ 44
▁悩 44
▁悪かっ 44
▁指示 44
▁採 44
▁無線 44
▁理論 44
▁祝 44
▁術 44
▁記事 44
▁議 44
▁賞 44
▁遅い 44
ばし 44
ひ 44
わせ 44
セス 44
ーん 44
師 44
急 44
悪 44
態 44
止め 44
準 44
率 44
考 44
50 43
aked 43
apped 43
aps 43
dam 43
enty 43
ery 43
ever 43
ground 43
ift 43
ikun 43
ises 43
itter 43
lly 43
ns 43
ost 43
ral 43
ression 43
ule 43
upp 43
xt 43
▁De 43
▁above 43
▁amb 43
▁appreciate 43
▁avoid 43
▁band 43
▁calls 43
▁compet 43
▁concer 43
▁connected 43
▁cook 43
▁cooperative 43
▁disc 43
▁du 43
▁egg 43
▁emp 43
▁extra 43
▁extreme 43
▁fem 43
▁fresh 43
▁goddamn 43
▁hop 43
▁including 43
▁indust 43
▁japan 43
▁ka 43
▁ladies 43
▁loss 43
▁map 43
▁meat 43
▁michael 43
▁mid 43
▁missed 43
▁mist 43
▁model 43
▁note 43
▁occ 43
▁ocean 43
▁papa 43
▁powerful 43
▁profess 43
▁pun 43
▁punch 43
▁reality 43
▁remain 43
▁rule 43
▁showed 43
▁spend 43
▁summer 43
▁surprise 43
▁survive 43
▁tal 43
▁tur 43
▁value 43
▁waste 43
▁zero 43
▁くっ 43
▁ほんと 43
▁サイト 43
▁ジェーン 43
▁スキ 43
▁スーツ 43
▁フロ 43
▁プレゼ 43
▁モー 43
▁上手 43
▁世 43
▁久し 43
▁偉大 43
▁列 43
▁噂 43
▁土地 43
▁城 43
▁学ん 43
▁宝 43
▁尽 43
▁平気 43
▁待た 43
▁感じる 43
▁所有 43
▁捜索 43
▁方向 43
▁深く 43
▁牛 43
▁異常 43
▁目撃 43
▁知識 43
▁競 43
▁緑 43
▁苦労 43
▁荒 43
▁豊 43
▁送り 43
▁里 43
▁闇 43
▁面白 43
▁鼻 43
かん 43
たく 43
っこ 43
もう 43
りゃ 43
ショ 43
乳 43
勤 43
層 43
抗 43
果 43
熱 43
腹 43
荷 43
誌 43
馬 43
DF 42
ades 42
aint 42
aru 42
att 42
ena 42
ened 42
ented 42
eric 42
iest 42
ites 42
ker 42
lass 42
ode 42
ship 42
uel 42
ull 42
utions 42
▁Stud 42
▁blind 42
▁bud 42
▁crew 42
▁da 42
▁directly 42
▁drunk 42
▁dy 42
▁forg 42
▁ghost 42
▁gift 42
▁heaven 42
▁hurts 42
▁jul 42
▁max 42
▁molec 42
▁mus 42
▁nin 42
▁nur 42
▁pleasure 42
▁proud 42
▁race 42
▁rate 42
▁recognize 42
▁relax 42
▁responsibility 42
▁round 42
▁sacr 42
▁shr 42
▁size 42
▁spot 42
▁stuck 42
▁taught 42
▁wild 42
▁written 42
▁いらっしゃ 42
▁がっ 42
▁きれい 42
▁クル 42
▁ケン 42
▁ジム 42
▁パス 42
▁ベン 42
▁リスク 42
▁処理 42
▁吹 42
▁呪 42
▁契約 42
▁幸運 42
▁拡 42
▁提案 42
▁握 42
▁操 42
▁支配 42
▁数字 42
▁段階 42
▁永遠 42
▁混 42
▁生き残 42
▁異なる 42
▁目標 42
▁脅 42
▁脚 42
▁角 42
▁警部 42
▁貰 42
▁起こる 42
▁遠く 42
▁除 42
▁預 42
▁領 42
▁鬼 42
べる 42
まら 42
らえ 42
ギー 42
クター 42
ッション 42
ニング 42
ポート 42
ルフ 42
ワー 42
ンター 42
ーイ 42
入れ 42
典 42
千 42
司 42
団 42
婦 42
惑 42
敷 42
昇 42
是 42
波 42
津 42
満 42
火 42
砲 42
票 42
結 42
脈 42
草 42
菌 42
薬 42
血 42
還 42
郷 42
11 41
30 41
ached 41
amb 41
fe 41
for 41
gress 41
house 41
ino 41
istry 41
iter 41
ners 41
of 41
ops 41
por 41
rant 41
rom 41
rove 41
▁45 41
▁Elect 41
▁ash 41
▁becomes 41
▁beh 41
▁bene 41
▁besides 41
▁bob 41
▁cases 41
▁challenge 41
▁complex 41
▁determ 41
▁fat 41
▁freedom 41
▁further 41
▁girlfriend 41
▁hack 41
▁happiness 41
▁hoping 41
▁knock 41
▁labor 41
▁leader 41
▁lower 41
▁mos 41
▁nick 41
▁ours 41
▁pieces 41
▁ple 41
▁pract 41
▁prin 41
▁raise 41
▁saving 41
▁sug 41
▁ut 41
▁wound 41
▁いたし 41
▁かわい 41
▁び 41
▁ほか 41
▁もしもし 41
▁アンド 41
▁カリ 41
▁ガキ 41
▁キス 41
▁コミュニ 41
▁コーヒー 41
▁ゴミ 41
▁スポ 41
▁テープ 41
▁ドイツ 41
▁バレ 41
▁ファン 41
▁フラ 41
▁プライ 41
▁マスター 41
▁モデル 41
▁一般 41
▁今後 41
▁休み 41
▁侵入 41
▁兵士 41
▁出来事 41
▁受け入れ 41
▁圧 41
▁大量 41
▁孫 41
▁容 41
▁密 41
▁対象 41
▁岡 41
▁工場 41
▁手段 41
▁拒 41
▁指紋 41
▁振り 41
▁殺そう 41
▁泣 41
▁演奏 41
▁無視 41
▁着い 41
▁程度 41
▁耐 41
▁芸術 41
▁藤 41
▁見せる 41
▁議論 41
▁護 41
▁送る 41
▁酔っ 41
▁関心 41
かれ 41
らく 41
らしい 41
サン 41
判 41
居 41
棄 41
池 41
病 41
盗 41
詰め 41
aker 40
anger 40
apt 40
ctor 40
ding 40
ero 40
omet 40
omy 40
ool 40
other 40
rate 40
rated 40
ulty 40
yo 40
▁32 40
▁Ex 40
▁affect 40
▁agree 40
▁aim 40
▁animals 40
▁bodies 40
▁bond 40
▁buddy 40
▁cam 40
▁cia 40
▁comfort 40
▁custom 40
▁detect 40
▁dress 40
▁familiar 40
▁farm 40
▁ge 40
▁gotten 40
▁govern 40
▁guest 40
▁held 40
▁higher 40
▁identity 40
▁included 40
▁japanese 40
▁jew 40
▁mask 40
▁mike 40
▁mount 40
▁necessary 40
▁nose 40
▁powers 40
▁pregnant 40
▁quar 40
▁roy 40
▁screw 40
▁sec 40
▁several 40
▁sher 40
▁sight 40
▁tan 40
▁ther 40
▁tow 40
▁tradition 40
▁treatment 40
▁universe 40
▁upon 40
▁upset 40
▁victims 40
▁wor 40
▁· 40
▁♬ 40
▁うう 40
▁うっ 40
▁えっと 40
▁かつて 40
▁ずつ 40
▁だれ 40
▁とん 40
▁はっ 40
▁べ 40
▁インターネット 40
▁ソー 40
▁ノー 40
▁フフ 40
▁ヴ 40
▁以内 40
▁再び 40
▁分析 40
▁剤 40
▁労働 40
▁同時 40
▁困難 40
▁売り 40
▁守り 40
▁安心 40
▁尊 40
▁差し 40
▁影 40
▁忙しい 40
▁感覚 40
▁戻れ 40
▁撃つ 40
▁省 40
▁立つ 40
▁米国 40
▁習 40
▁著 40
▁行わ 40
▁衝 40
▁買う 40
▁頼ま 40
つく 40
われ 40
ェル 40
ステ 40
ッカ 40
ブリ 40
催 40
兵 40
園 40
嫌 40
帝 40
指 40
散 40
治 40
盛 40
給 40
統 40
討 40
語 40
謀 40
量 40
0000 39
arr 39
arth 39
cks 39
ees 39
emat 39
ham 39
ibility 39
ida 39
iles 39
inal 39
itor 39
lan 39
lf 39
oka 39
ources 39
pa 39
pper 39
rench 39
rial 39
rict 39
uit 39
vin 39
▁Education 39
▁Environmental 39
▁animal 39
▁answ 39
▁apparently 39
▁appl 39
▁bastard 39
▁bullet 39
▁cent 39
▁cha 39
▁cities 39
▁corpor 39
▁danger 39
▁david 39
▁defense 39
▁demand 39
▁desp 39
▁double 39
▁drag 39
▁event 39
▁flight 39
▁gps 39
▁growing 39
▁incredible 39
▁indeed 39
▁india 39
▁kan 39
▁location 39
▁na 39
▁photograph 39
▁possibly 39
▁reasons 39
▁rober 39
▁scan 39
▁showing 39
▁source 39
▁speaking 39
▁specific 39
▁staying 39
▁swear 39
▁wash 39
▁あい 39
▁いずれ 39
▁いわ 39
▁えぇ 39
▁ごと 39
▁せよ 39
▁そっ 39
▁ばあ 39
▁ほんの 39
▁もら 39
▁アス 39
▁アド 39
▁アラ 39
▁イヤ 39
▁コントロール 39
▁チョコ 39
▁デイ 39
▁ナルト 39
▁モノ 39
▁ライト 39
▁ワン 39
▁一生 39
▁付い 39
▁代表 39
▁作ら 39
▁作戦 39
▁像 39
▁切れ 39
▁及 39
▁回復 39
▁大した 39
▁学科 39
▁完 39
▁宗 39
▁忘れる 39
▁悟空 39
▁支払 39
▁時計 39
▁本部 39
▁栄 39
▁気づ 39
▁生きる 39
▁男の子 39
▁確かめ 39
▁示す 39
▁禁止 39
▁空気 39
▁維持 39
▁航 39
▁行い 39
▁設置 39
▁認 39
▁養 39
くり 39
まれ 39
やし 39
クラ 39
ニック 39
ヘ 39
偵 39
号 39
合わ 39
圧 39
密 39
我 39
房 39
沢 39
玉 39
番 39
相 39
管 39
識 39
辺 39
雷 39
ene 38
erson 38
ica 38
ided 38
ills 38
iro 38
ja 38
light 38
oko 38
phone 38
ript 38
to 38
ube 38
uka 38
uty 38
yearold 38
ym 38
▁& 38
▁28 38
▁abandon 38
▁arrived 38
▁celebr 38
▁crit 38
▁dam 38
▁dish 38
▁due 38
▁emergency 38
▁ended 38
▁google 38
▁grave 38
▁holy 38
▁init 38
▁james 38
▁learning 38
▁liter 38
▁material 38
▁method 38
▁opponent 38
▁ow 38
▁practice 38
▁princess 38
▁proof 38
▁records 38
▁regret 38
▁repl 38
▁staff 38
▁stole 38
▁thoughts 38
▁violence 38
▁weapons 38
▁うれ 38
▁こりゃ 38
▁ども 38
▁なかなか 38
▁アクセス 38
▁イエ 38
▁エル 38
▁エレ 38
▁スーパー 38
▁テメ 38
▁トップ 38
▁バック 38
▁パト 38
▁ヒー 38
▁フィル 38
▁フィンチ 38
▁マシン 38
▁メートル 38
▁ライフ 38
▁レー 38
▁公園 38
▁初め 38
▁到着 38
▁努力 38
▁勇気 38
▁危ない 38
▁取れ 38
▁叩 38
▁喜ん 38
▁執 38
▁存じ 38
▁存知 38
▁封 38
▁才能 38
▁望 38
▁期 38
▁没 38
▁注目 38
▁理工 38
▁発生 38
▁程 38
▁笑い 38
▁解放 38
▁触れ 38
▁調べる 38
▁諸 38
▁這 38
▁雑 38
▁食べ物 38
▁麻 38
ぅ 38
じる 38
らい 38
ウム 38
ミング 38
ンバー 38
冬 38
図 38
小 38
常 38
張り 38
掛け 38
求 38
決 38
派 38
献 38
直し 38
破 38
許 38
麗 38
alf 37
anced 37
ban 37
bing 37
cking 37
ec 37
ening 37
ently 37
ern 37
essed 37
ference 37
gie 37
iyama 37
nel 37
novation 37
ove 37
ried 37
rupt 37
uced 37
und 37
uts 37
view 37
vision 37
well 37
ysis 37
za 37
▁196 37
▁St 37
▁action 37
▁associ 37
▁believed 37
▁bite 37
▁blame 37
▁bow 37
▁bunch 37
▁cameras 37
▁castle 37
▁changes 37
▁collea 37
▁condition 37
▁currently 37
▁duel 37
▁eur 37
▁everywhere 37
▁fate 37
▁fif 37
▁flash 37
▁former 37
▁fran 37
▁gate 37
▁generation 37
▁ham 37
▁hay 37
▁hes 37
▁hundreds 37
▁hur 37
▁issue 37
▁kidding 37
▁launch 37
▁lis 37
▁lonely 37
▁matters 37
▁medicine 37
▁mult 37
▁nervous 37
▁nor 37
▁normally 37
▁occur 37
▁phot 37
▁phys 37
▁plans 37
▁prepared 37
▁price 37
▁prime 37
▁prince 37
▁publ 37
▁ray 37
▁repres 37
▁resc 37
▁responsible 37
▁restaur 37
▁rum 37
▁shoes 37
▁silver 37
▁sleeping 37
▁solution 37
▁stab 37
▁surgery 37
▁taste 37
▁unit 37
▁visual 37
▁wedding 37
▁whom 37
▁younger 37
▁おば 37
▁がら 37
▁がん 37
▁だい 37
▁づ 37
▁ぼ 37
▁もと 37
▁カン 37
▁ガス 37
▁ケーキ 37
▁トラン 37
▁ファイル 37
▁プレイ 37
▁マイ 37
▁ルー 37
▁予想 37
▁予測 37
▁信号 37
▁凄 37
▁勝っ 37
▁吐 37
▁商 37
▁善 37
▁固 37
▁園 37
▁地獄 37
▁壊れ 37
▁妖 37
▁完了 37
▁実現 37
▁専攻 37
▁当たり前 37
▁後悔 37
▁怪我 37
▁悟 37
▁慈 37
▁手伝い 37
▁払っ 37
▁承 37
▁挙 37
▁描い 37
▁政 37
▁映 37
▁望む 37
▁構わ 37
▁泥 37
▁混乱 37
▁激 37
▁発表 37
▁知り合い 37
▁確信 37
▁編 37
▁罰 37
▁能 37
▁自信 37
▁親友 37
▁言 37
▁認識 37
▁誘拐 37
▁遅く 37
たっ 37
ふ 37
ストン 37
ズミ 37
ビュー 37
ビン 37
リアン 37
ロウ 37
ワード 37
党 37
刑 37
加 37
営 37
巣 37
戸 37
抵 37
拠 37
揺 37
災 37
無 37
版 37
独 37
留 37
章 37
答 37
裂 37
首 37
X 36
Y 36
asc 36
cess 36
die 36
ika 36
iling 36
ilt 36
iot 36
lim 36
lin 36
lock 36
ody 36
oud 36
pped 36
rie 36
ston 36
uct 36
ulous 36
▁3000 36
▁adult 36
▁afternoon 36
▁apart 36
▁arch 36
▁atoms 36
▁beauty 36
▁bon 36
▁century 36
▁chocolate 36
▁chr 36
▁cir 36
▁dece 36
▁detail 36
▁doctors 36
▁dogs 36
▁doors 36
▁easier 36
▁effort 36
▁element 36
▁film 36
▁flowers 36
▁followed 36
▁german 36
▁henry 36
▁horse 36
▁interact 36
▁international 36
▁judge 36
▁lovely 36
▁marry 36
▁naruto 36
▁noticed 36
▁oil 36
▁opin 36
▁oppos 36
▁ordered 36
▁priv 36
▁prove 36
▁rand 36
▁rece 36
▁rice 36
▁sarah 36
▁sho 36
▁skills 36
▁structure 36
▁ult 36
▁weather 36
▁whe 36
▁willing 36
▁あっち 36
▁いで 36
▁かえ 36
▁すら 36
▁ちょうだい 36
▁ウォルター 36
▁エド 36
▁コード 36
▁ドン 36
▁パターン 36
▁パート 36
▁ブレ 36
▁マネ 36
▁为 36
▁乾 36
▁交換 36
▁任 36
▁使える 36
▁便 36
▁保険 36
▁内容 36
▁内部 36
▁冒 36
▁出せ 36
▁出発 36
▁単純 36
▁卵 36
▁同僚 36
▁同士 36
▁同意 36
▁吗 36
▁変わり 36
▁夕食 36
▁天使 36
▁妊娠 36
▁寂 36
▁崩 36
▁床 36
▁戦闘 36
▁手伝 36
▁抑 36
▁掘 36
▁料 36
▁昨 36
▁楽しん 36
▁止める 36
▁残る 36
▁求 36
▁法律 36
▁策 36
▁絞 36
▁練習 36
▁育て 36
▁興奮 36
▁虫 36
▁誠 36
▁説得 36
▁賛 36
▁起きる 36
▁進め 36
▁部長 36
とう 36
まし 36
パート 36
句 36
字 36
寺 36
帳 36
干 36
張っ 36
易 36
柄 36
縁 36
縛 36
虐 36
載 36
退 36
逃 36
連 36
% 35
.1 35
aku 35
antic 35
arm 35
back 35
hib 35
iam 35
itude 35
ky 35
ompl 35
ooper 35
oose 35
ouch 35
reen 35
ules 35
uma 35
vert 35
▁Center 35
▁acce 35
▁assh 35
▁borrow 35
▁carol 35
▁challen 35
▁changing 35
▁charlie 35
▁chest 35
▁chick 35
▁cle 35
▁commander 35
▁committed 35
▁concerned 35
▁connection 35
▁cust 35
▁det 35
▁divor 35
▁driving 35
▁drugs 35
▁empty 35
▁ess 35
▁excited 35
▁finch 35
▁fingerpr 35
▁fol 35
▁geor 35
▁harm 35
▁hat 35
▁knowledge 35
▁leaders 35
▁log 35
▁mc 35
▁minister 35
▁ol 35
▁oliver 35
▁ooh 35
▁orig 35
▁passion 35
▁paul 35
▁rights 35
▁safety 35
▁shadow 35
▁shame 35
▁shooting 35
▁slowly 35
▁smile 35
▁stomach 35
▁streets 35
▁tape 35
▁task 35
▁troub 35
▁twice 35
▁unfortunately 35
▁vari 35
▁wal 35
▁wine 35
▁どうせ 35
▁まい 35
▁やす 35
▁エイ 35
▁エンジ 35
▁エンジン 35
▁サイン 35
▁セックス 35
▁チョ 35
▁トイレ 35
▁トー 35
▁ドライ 35
▁ブリ 35
▁プレ 35
▁マリ 35
▁レッド 35
▁ワシ 35
▁事情 35
▁人口 35
▁伝説 35
▁使 35
▁兄貴 35
▁入ら 35
▁分かん 35
▁匹 35
▁医師 35
▁商品 35
▁噛 35
▁基地 35
▁失う 35
▁急げ 35
▁恐ろしい 35
▁慣れ 35
▁才 35
▁把 35
▁掛け 35
▁早い 35
▁期間 35
▁死な 35
▁泳 35
▁爆 35
▁獣 35
▁積 35
▁笑っ 35
▁筋 35
▁終わら 35
▁置き 35
▁舞 35
▁船長 35
▁葉 35
▁言語 35
▁許さ 35
▁評 35
▁講 35
▁議員 35
▁赤い 35
▁途中 35
▁録 35
▁面倒 35
ほど 35
やり 35
キシ 35
クション 35
ジュ 35
ッシ 35
ーンズ 35
与 35
強 35
慢 35
揮 35
束 35
樹 35
液 35
眠 35
称 35
立て 35
紀 35
絶 35
舞 35
茶 35
裕 35
製 35
触 35
走 35
起こ 35
都 35
隔 35
霊 35
aching 34
ange 34
ators 34
emic 34
esh 34
gl 34
hood 34
icious 34
igh 34
isco 34
itted 34
let 34
mate 34
men 34
mes 34
off 34
omi 34
oon 34
otten 34
ses 34
uh 34
using 34
ux 34
velop 34
ware 34
wise 34
▁High 34
▁Me 34
▁alex 34
▁arrested 34
▁assum 34
▁audience 34
▁beyond 34
▁bright 34
▁clin 34
▁complicated 34
▁conduct 34
▁contract 34
▁darling 34
▁dem 34
▁deserve 34
▁discovered 34
▁doc 34
▁entr 34
▁eventually 34
▁evolution 34
▁forest 34
▁harder 34
▁heading 34
▁hidden 34
▁insur 34
▁intern 34
▁jer 34
▁joe 34
▁legend 34
▁london 34
▁magaz 34
▁prior 34
▁proper 34
▁properly 34
▁property 34
▁reading 34
▁received 34
▁recogn 34
▁repe 34
▁rig 34
▁roof 34
▁rout 34
▁secretary 34
▁shape 34
▁similar 34
▁stars 34
▁surround 34
▁unc 34
▁useless 34
▁weight 34
▁うまい 34
▁うるさい 34
▁つつ 34
▁てく 34
▁どっ 34
▁めでとう 34
▁やすい 34
▁イライ 34
▁インタ 34
▁キャロ 34
▁グロー 34
▁シル 34
▁ジャン 34
▁スピード 34
▁ゾ 34
▁ダンス 34
▁パーティ 34
▁マイケル 34
▁モン 34
▁ラー 34
▁レン 34
▁ワイン 34
▁不安 34
▁世代 34
▁何百 34
▁優秀 34
▁兵器 34
▁凶 34
▁出会 34
▁利益 34
▁加え 34
▁味方 34
▁喋 34
▁国家 34
▁憎 34
▁我慢 34
▁払 34
▁払う 34
▁扱い 34
▁抱え 34
▁押さ 34
▁持た 34
▁指導 34
▁時期 34
▁植物 34
▁殺せ 34
▁毛 34
▁満足 34
▁源 34
▁犯行 34
▁相談 34
▁確保 34
▁結合 34
▁緊急 34
▁肢 34
▁落とし 34
▁融 34
▁行方 34
▁表現 34
▁要素 34
▁覚悟 34
▁解明 34
▁諦め 34
▁途 34
▁遭 34
▁際 34
▁集中 34
かう 34
かける 34
ざけ 34
ぞ 34
ましい 34
やく 34
グル 34
ジア 34
セル 34
チン 34
バイス 34
ブラ 34
レート 34
ーリー 34
丁 34
伸 34
使 34
便 34
却 34
席 34
恨 34
才 34
援 34
河 34
海 34
激 34
粉 34
聴 34
葉 34
虫 34
訳 34
訴 34
骨 34
Z 33
ably 33
acle 33
airs 33
alth 33
anda 33
bur 33
clock 33
ef 33
gen 33
ih 33
inating 33
iven 33
net 33
oup 33
oved 33
rum 33
stand 33
uction 33
ugg 33
ulate 33
wards 33
▁Gr 33
▁Phys 33
▁Th 33
▁allowed 33
▁ay 33
▁bare 33
▁betray 33
▁brief 33
▁broad 33
▁ce 33
▁checked 33
▁christmas 33
▁claim 33
▁contain 33
▁defeat 33
▁democr 33
▁details 33
▁distance 33
▁docum 33
▁established 33
▁et 33
▁exchange 33
▁goku 33
▁greatest 33
▁guns 33
▁issu 33
▁jobs 33
▁kar 33
▁kat 33
▁ky 33
▁libr 33
▁lights 33
▁mob 33
▁ox 33
▁plate 33
▁plus 33
▁population 33
▁potential 33
▁prefer 33
▁prep 33
▁pulled 33
▁reb 33
▁release 33
▁response 33
▁revolution 33
▁rough 33
▁satell 33
▁schools 33
▁soldiers 33
▁stolen 33
▁storm 33
▁theory 33
▁tip 33
▁tot 33
▁understanding 33
▁understood 33
▁usual 33
▁walked 33
▁web 33
▁wondering 33
▁yell 33
▁。➡ 33
▁おる 33
▁せっ 33
▁はあ 33
▁アカ 33
▁イカ 33
▁イギリス 33
▁グリ 33
▁サイズ 33
▁サス 33
▁スタン 33
▁ソフト 33
▁ゾンビ 33
▁ハァ 33
▁ヒュー 33
▁ビー 33
▁ビール 33
▁フリー 33
▁ヘル 33
▁ベイ 33
▁メディア 33
▁モニ 33
▁ヨー 33
▁リース 33
▁ロンドン 33
▁不思議 33
▁中止 33
▁交渉 33
▁住所 33
▁余計 33
▁借 33
▁偶然 33
▁出さ 33
▁叔 33
▁困っ 33
▁埋め 33
▁妨 33
▁姫 33
▁帰れ 33
▁徒 33
▁得意 33
▁復讐 33
▁怖く 33
▁愛する 33
▁戻ら 33
▁技 33
▁挑戦 33
▁末 33
▁概 33
▁永 33
▁済ん 33
▁炭 33
▁画 33
▁目覚 33
▁研 33
▁群 33
▁血液 33
▁見つから 33
▁誇り 33
▁造 33
▁道路 33
▁選ぶ 33
がれ 33
セント 33
ディア 33
ディー 33
ナル 33
ハッ 33
ヨ 33
持ち 33
暖 33
有 33
泊 33
獄 33
績 33
葬 33
表 33
说 33
豚 33
費 33
F 32
G 32
ampus 32
eb 32
een 32
empt 32
eng 32
erg 32
esign 32
hern 32
ications 32
ili 32
imp 32
ining 32
kn 32
lish 32
omed 32
oop 32
ounce 32
ram 32
reat 32
sel 32
▁Fac 32
▁activity 32
▁assign 32
▁attacked 32
▁aud 32
▁autom 32
▁awful 32
▁becoming 32
▁cake 32
▁central 32
▁chinese 32
▁clim 32
▁commit 32
▁conv 32
▁credit 32
▁crying 32
▁cub 32
▁cup 32
▁decl 32
▁deli 32
▁direction 32
▁doll 32
▁ell 32
▁festival 32
▁fired 32
▁flo 32
▁flying 32
▁forces 32
▁growth 32
▁hadn 32
▁hired 32
▁ju 32
▁kitchen 32
▁legal 32
▁lied 32
▁lieutenant 32
▁los 32
▁mate 32
▁murderer 32
▁murders 32
▁ner 32
▁neur 32
▁od 32
▁opened 32
▁paying 32
▁permission 32
▁planned 32
▁popular 32
▁protecting 32
▁relig 32
▁rent 32
▁rev 32
▁reven 32
▁ris 32
▁shaw 32
▁solve 32
▁stock 32
▁sweetheart 32
▁temper 32
▁var 32
▁vote 32
▁winter 32
▁かかり 32
▁すば 32
▁そば 32
▁たがっ 32
▁たっ 32
▁ちゃい 32
▁ついに 32
▁できれ 32
▁とう 32
▁なさ 32
▁ましょ 32
▁やっぱ 32
▁よろ 32
▁アホ 32
▁イタリア 32
▁ウェブ 32
▁エリ 32
▁コイツ 32
▁スキャ 32
▁ステージ 32
▁ソン 32
▁ピア 32
▁フォー 32
▁ヘリ 32
▁レスト 32
▁両方 32
▁个 32
▁五 32
▁付き合っ 32
▁企 32
▁住む 32
▁佐 32
▁保安 32
▁健 32
▁優れ 32
▁共有 32
▁出会っ 32
▁分け 32
▁困 32
▁増え 32
▁大勢 32
▁如 32
▁始まる 32
▁委員 32
▁寒い 32
▁寝る 32
▁将軍 32
▁彼氏 32
▁快 32
▁態 32
▁掲 32
▁操作 32
▁教える 32
▁旧 32
▁普 32
▁暮 32
▁楽しかっ 32
▁殺害 32
▁民主 32
▁沈 32
▁生産 32
▁粒子 32
▁終わる 32
▁結び 32
▁考 32
▁脅威 32
▁腫 32
▁自宅 32
▁致 32
▁行ける 32
▁話そう 32
▁読む 32
▁資源 32
▁軍隊 32
▁輸 32
▁辛 32
▁通常 32
▁進ん 32
▁限ら 32
▁陸 32
▁離婚 32
▁飛ん 32
▁食い 32
おり 32
から 32
イア 32
エン 32
ジャ 32
ッキ 32
バート 32
ファー 32
フィー 32
リート 32
ルタ 32
上げる 32
例 32
充 32
変 32
尉 32
岡 32
帰 32
松 32
毛 32
滞 32
異 32
療 32
積 32
肩 32
蛇 32
防 32
項 32
香 32
agn 31
anta 31
arch 31
ev 31
iform 31
ij 31
istan 31
ively 31
la 31
ories 31
rick 31
sy 31
vice 31
vious 31
▁2007 31
▁27 31
▁36 31
▁Ar 31
▁Coll 31
▁Japan 31
▁Life 31
▁Program 31
▁Social 31
▁ach 31
▁architect 31
▁bones 31
▁bottle 31
▁capital 31
▁cas 31
▁circ 31
▁circumst 31
▁citizens 31
▁cooking 31
▁council 31
▁courage 31
▁crap 31
▁darkness 31
▁designed 31
▁drinking 31
▁effects 31
▁excellent 31
▁experiment 31
▁famil 31
▁file 31
▁gang 31
▁hearing 31
▁ich 31
▁inspect 31
▁invest 31
▁kag 31
▁kinda 31
▁loud 31
▁members 31
▁neighborhood 31
▁nuclear 31
▁obvious 31
▁onto 31
▁photo 31
▁predict 31
▁ram 31
▁recon 31
▁related 31
▁resp 31
▁rub 31
▁sakur 31
▁sas 31
▁scare 31
▁secure 31
▁shock 31
▁spell 31
▁square 31
▁stayed 31
▁stone 31
▁stress 31
▁sudden 31
▁ticket 31
▁towards 31
▁transport 31
▁unlike 31
▁vehicle 31
▁vent 31
▁vict 31
▁whose 31
▁wol 31
▁zomb 31
▁〜 31
▁ありがと 31
▁いろんな 31
▁ぇ 31
▁かか 31
▁さよう 31
▁さら 31
▁すげ 31
▁ずいぶん 31
▁せよう 31
▁とく 31
▁どんどん 31
▁なくなっ 31
▁まずい 31
▁やはり 31
▁アク 31
▁アト 31
▁イノ 31
▁ウチ 31
▁カッコ 31
▁チャーリー 31
▁テクノロジー 31
▁テーブル 31
▁デー 31
▁ドクター 31
▁フッ 31
▁マク 31
▁マーク 31
▁世の中 31
▁今年 31
▁伝える 31
▁保障 31
▁候 31
▁備 31
▁六 31
▁只 31
▁基礎 31
▁奇跡 31
▁奴隷 31
▁妙 31
▁婚 31
▁対応 31
▁当て 31
▁形成 31
▁意思 31
▁愚か 31
▁拍 31
▁招待 31
▁撮影 31
▁暇 31
▁杯 31
▁気づか 31
▁決める 31
▁焦 31
▁猿 31
▁現象 31
▁発展 31
▁監督 31
▁管 31
▁繰り返し 31
▁臨 31
▁衛星 31
▁起こり 31
▁踏み 31
▁还 31
▁銀河 31
▁陰 31
▁集団 31
▁食料 31
▁駆け 31
▁騙 31
▁高く 31
▁魅 31
▁麻薬 31
ぴ 31
ウル 31
シャル 31
ッサ 31
ッパ 31
ニエル 31
フト 31
ミン 31
リカ 31
リズム 31
リル 31
ールズ 31
供 31
助け 31
同 31
土 31
嵐 31
差 31
快 31
払 31
春 31
殺し 31
源 31
潔 31
癌 31
百 31
縮 31
菜 31
観 31
过 31
飼 31
ED 30
H 30
achi 30
ady 30
anag 30
ano 30
asure 30
ault 30
cip 30
cket 30
ential 30
fore 30
ka 30
rible 30
ulation 30
xic 30
▁birth 30
▁cou 30
▁eas 30
▁os 30
▁pap 30
▁ton 30
▁うそ 30
▁およ 30
▁か月 30
▁すっ 30
▁てめ 30
▁ねー 30
▁トム 30
▁ミル 30
▁メガ 30
▁ユー 30
▁之 30
▁九 30
▁什么 30
▁伏せ 30
▁休ん 30
▁作用 30
▁優先 30
▁共同 30
▁出血 30
▁分っ 30
▁占 30
▁含め 30
▁地図 30
▁埋 30
▁堂 30
▁変更 30
▁奇妙 30
▁奈 30
▁婦 30
▁字 30
▁宿 30
▁富 30
▁平均 30
▁幾 30
▁忙 30
▁扉 30
▁拘 30
▁拾 30
▁株 30
▁橋 30
▁毎年 30
▁決断 30
▁泣い 30
▁炎 30
▁狙っ 30
▁狩 30
▁獲 30
▁王子 30
▁珍 30
▁範 30
▁米 30
▁綺 30
▁背中 30
▁臭 30
▁警告 30
▁通じ 30
▁通っ 30
▁金庫 30
▁針 30
▁釣 30
▁間違 30
▁霊 30
▁駐車 30
おい 30
した 30
しみ 30
たる 30
ゅ 30
ゥー 30
チュ 30
ノー 30
ライト 30
也 30
僧 30
兆 30
割 30
即 30
囚 30
容 30
庁 30
廃 30
引き 30
当たり 30
很 30
打 30
挙 30
朝 30
林 30
栄 30
泉 30
瀬 30
煙 30
班 30
盤 30
突 30
竜 30
第 30
育 30
補 30
覆 30
贈 30
返し 30
透 30
違い 30
那 30
里 30
降 30
顔 30
齢 30
) 29
gg 29
iness 29
leep 29
right 29
uss 29
▁202 29
▁cla 29
▁comput 29
▁es 29
▁struct 29
▁うる 29
▁デザ 29
▁ナイ 29
▁扱 29
▁状 29
▁素晴 29
ても 29
なた 29
り返 29
ゾ 29
ッコ 29
七 29
乗 29
京 29
刀 29
咲 29
店 29
弾 29
懸 29
次 29
演 29
灰 29
甲 29
確 29
腐 29
西 29
角 29
貯 29
賀 29
賞 29
趣 29
邦 29
革 29
飛 29
養 29
anna 28
ause 28
emy 28
ither 28
self 28
▁abs 28
▁disapp 28
▁discover 28
▁hon 28
▁mater 28
▁teac 28
▁unf 28
▁亡く 28
▁監 28
ぜ 28
久 28
修 28
削 28
可 28
台 28
呢 28
哀 28
央 28
尻 28
巡 28
幅 28
旦 28
校 28
滑 28
磁 28
肝 28
華 28
话 28
貢 28
起 28
適 28
関 28
静 28
頃 28
風 28
鮮 28
Q 27
aut 27
bers 27
come 27
icated 27
ineering 27
ission 27
rol 27
stit 27
ually 27
ubl 27
▁din 27
▁invol 27
▁mic 27
▁opp 27
▁tick 27
▁呼 27
▁専 27
▁尋 27
▁秘 27
▁緊 27
▁落 27
▁責 27
件 27
伊 27
你 27
倒 27
償 27
凍 27
半 27
双 27
夜 27
復 27
恩 27
慎 27
拝 27
掴 27
揃 27
政 27
敢 27
析 27
熟 27
痛 27
睡 27
秋 27
紅 27
純 27
舎 27
豆 27
遣 27
陛 27
雲 27
黄 27
bor 26
ead 26
ember 26
ience 26
ograph 26
uclear 26
urn 26
▁cast 26
▁hist 26
▁mich 26
▁nort 26
▁いた 26
▁スー 26
▁テー 26
▁ビジ 26
▁侵 26
▁奇 26
▁始 26
▁招 26
えば 26
たし 26
らか 26
シア 26
伯 26
住 26
係 26
剣 26
史 26
壁 26
怯 26
悔 26
惨 26
敗 26
斬 26
朗 26
江 26
片 26
狼 26
由 26
秘 26
算 26
緒 26
縦 26
臣 26
船 26
誉 26
述 26
遇 26
閲 26
阻 26
陥 26
駅 26
ertain 25
ients 25
mission 25
oul 25
ser 25
━ 25
▁parent 25
▁spe 25
▁スカ 25
▁スパ 25
▁夕 25
▁禁 25
▁過ご 25
ぺ 25
もし 25
デル 25
亜 25
仰 25
区 25
印 25
厄 25
又 25
受 25
呂 25
威 25
嫁 25
尾 25
幹 25
徹 25
怪 25
戻 25
握 25
標 25
浴 25
犬 25
男 25
皇 25
究 25
筆 25
膨 25
興 25
苦 25
蜂 25
記 25
賊 25
較 25
迎 25
cell 24
cience 24
▁conn 24
▁fur 24
▁gentle 24
▁lad 24
▁maj 24
▁vi 24
▁こん 24
▁なか 24
▁寒 24
▁巨 24
▁弁 24
▁植 24
➡ 24
ぃ 24
がら 24
なか 24
ジェ 24
不 24
伴 24
似 24
但 24
低 24
來 24
価 24
到 24
刺 24
喧 24
嘩 24
困 24
局 24
幕 24
幽 24
床 24
折 24
接 24
暇 24
机 24
条 24
東 24
欺 24
歴 24
沙 24
漏 24
漫 24
焼 24
犯 24
玄 24
瞬 24
米 24
織 24
自 24
詰 24
說 24
読 24
賃 24
躍 24
閣 24
陽 24
顧 24
16 23
W 23
chnology 23
dle 23
eared 23
icle 23
oid 23
ork 23
ount 23
ploy 23
que 23
read 23
side 23
× 23
▁Ch 23
▁dir 23
▁doub 23
▁experim 23
▁incl 23
▁mem 23
▁surpr 23
▁tar 23
▁久 23
▁依 23
▁偉 23
▁沢 23
▁落と 23
まえ 23
ヵ 23
二 23
亡 23
列 23
友 23
岩 23
幸 23
庭 23
待 23
怎 23
憶 23
拶 23
挨 23
旗 23
消 23
涯 23
温 23
潰 23
爪 23
社 23
竹 23
練 23
肌 23
肺 23
詐 23
詞 23
詩 23
認 23
販 23
遠 23
鉱 23
録 23
響 23
飾 23
鹿 23
adu 22
ibly 22
more 22
oll 22
▁Chem 22
▁Te 22
▁Un 22
▁af 22
▁cann 22
▁finger 22
▁net 22
▁somet 22
▁いろ 22
▁博 22
▁小さ 22
▁担 22
▁段 22
▁計 22
ちら 22
ゆ 22
互 22
伺 22
克 22
奈 22
将 22
導 22
履 22
律 22
悲 22
懐 22
戒 22
时 22
會 22
桐 22
検 22
構 22
橋 22
歓 22
殖 22
沿 22
溶 22
牧 22
疫 22
矢 22
笑 22
筈 22
糖 22
糸 22
紙 22
繁 22
翻 22
腰 22
褒 22
跳 22
鈴 22
闘 22
願 22
餌 22
髪 22
aff 21
aught 21
ces 21
cient 21
nder 21
▁crim 21
▁deser 21
▁exact 21
▁incred 21
▁neigh 21
▁trad 21
▁すご 21
▁アフ 21
▁写 21
▁嬉 21
▁答 21
▁駆 21
ぬ 21
んな 21
ネス 21
優 21
反 21
唱 21
喉 21
天 21
妻 21
已 21
廷 21
弁 21
引 21
径 21
晴 21
暴 21
样 21
植 21
活 21
漁 21
畜 21
磨 21
簿 21
系 21
繊 21
翌 21
虚 21
融 21
針 21
錠 21
険 21
際 21
霧 21
露 21
顕 21
騎 21
鳥 21
ciate 20
cus 20
eless 20
ku 20
like 20
okyo 20
ouse 20
set 20
| 20
▁americ 20
▁dar 20
▁fav 20
▁happ 20
▁ide 20
▁import 20
▁rele 20
▁sar 20
▁unt 20
▁vill 20
▁そろ 20
▁ひど 20
▁説 20
して 20
ズム 20
ーキ 20
値 20
全 20
共 20
刃 20
剖 20
募 20
古 20
塗 20
塞 20
奉 20
妹 20
姐 20
巻 20
帽 20
微 20
慌 20
憩 20
抽 20
敵 20
无 20
晶 20
棟 20
椅 20
洞 20
浅 20
浜 20
添 20
湖 20
爵 20
硬 20
礼 20
糞 20
網 20
罠 20
脳 20
購 20
踪 20
辱 20
遅 20
随 20
飢 20
館 20
～ 20
abl 19
ege 19
erman 19
ource 19
uation 19
▁defe 19
▁dise 19
▁mov 19
▁opportun 19
▁spec 19
▁押 19
いつ 19
っしゃ 19
もり 19
ゴン 19
テル 19
ネット 19
丸 19
些 19
仕 19
偏 19
哲 19
固 19
夫 19
妄 19
媒 19
愉 19
撤 19
暁 19
曹 19
浦 19
涙 19
灯 19
爆 19
爺 19
猟 19
盾 19
穏 19
籍 19
菓 19
誠 19
軌 19
辿 19
遥 19
陣 19
鳴 19
黒 19
acter 18
cil 18
iet 18
ird 18
ogr 18
rod 18
ru 18
sw 18
yer 18
▁differ 18
▁disco 18
▁soci 18
▁tast 18
▁召 18
▁既 18
▁示 18
▁聞 18
さい 18
ッセ 18
ミュ 18
之 18
倫 18
処 18
剥 18
劣 18
勿 18
厚 18
城 18
夢 18
序 18
廊 18
徳 18
患 18
慣 18
技 18
括 18
拳 18
早 18
欧 18
现 18
瘍 18
県 18
稿 18
筋 18
精 18
縫 18
羊 18
翔 18
膚 18
花 18
荘 18
薄 18
覗 18
貨 18
逆 18
避 18
陰 18
順 18
高 18
= 17
[ 17
aur 17
elt 17
lec 17
uth 17
▁bast 17
▁citiz 17
▁hid 17
▁prob 17
▁きれ 17
▁イタ 17
▁プログ 17
▁価 17
▁希 17
▁授 17
めん 17
ビス 17
伏せ 17
休 17
們 17
堂 17
奨 17
婚 17
展 17
憲 17
戴 17
捉 17
暮 17
杉 17
柔 17
柱 17
欲 17
殆 17
湾 17
瓶 17
町 17
疾 17
童 17
符 17
絆 17
而 17
脂 17
芝 17
裸 17
買 17
蹴 17
軸 17
銅 17
鑑 17
閉 17
障 17
須 17
龍 17
ask 16
ept 16
friend 16
how 16
ife 16
igure 16
itect 16
lt 16
olution 16
rest 16
‐ 16
▁So 16
▁System 16
▁amaz 16
▁convers 16
▁gh 16
▁necess 16
▁pa 16
▁sac 16
▁spir 16
▁ありが 16
▁ござ 16
▁しま 16
▁テレ 16
▁巻 16
【 16
っきり 16
ぷ 16
ルター 16
丶 16
儲 16
刊 16
剤 16
匿 16
嗎 16
圏 16
培 16
堀 16
堅 16
多 16
奇 16
始 16
季 16
宜 16
寮 16
开 16
弱 16
怠 16
挟 16
控 16
揚 16
摂 16
敏 16
整 16
杖 16
柳 16
沖 16
涼 16
疑 16
盟 16
箱 16
紛 16
緯 16
给 16
臆 16
艦 16
蚊 16
酬 16
酸 16
鍛 16
附 16
需 16
魚 16
麼 16
/ 15
ames 15
aughter 15
dict 15
ether 15
fort 15
inite 15
iversity 15
ocol 15
uto 15
ways 15
year 15
▁Ed 15
▁apolog 15
▁asso 15
▁camer 15
▁sor 15
▁summ 15
▁vide 15
▁インター 15
▁刑 15
▁条 15
▁申 15
▁簡 15
▁繰り返 15
▁衛 15
なく 15
ゆる 15
丘 15
以 15
做 15
刷 15
券 15
剰 15
勧 15
及 15
叶 15
塔 15
奴 15
她 15
寿 15
巧 15
彦 15
往 15
批 15
捧 15
晒 15
曲 15
更 15
樣 15
沒 15
溺 15
潤 15
症 15
癒 15
眺 15
督 15
紋 15
納 15
維 15
缶 15
署 15
翼 15
膝 15
診 15
请 15
豪 15
運 15
遮 15
邪 15
酒 15
鈍 15
问 15
飽 15
( 14
arent 14
chn 14
hn 14
iers 14
inger 14
inking 14
ross 14
→ 14
▁Environment 14
▁absolute 14
▁cour 14
▁dav 14
▁eff 14
▁emerg 14
▁fut 14
▁gon 14
▁jes 14
▁neighbor 14
▁underst 14
▁ほん 14
▁グル 14
▁働 14
▁可愛 14
▁将 14
▁貸 14
▁踏 14
▁頑 14
○ 14
〟 14
ロール 14
丈 14
个 14
仏 14
伏 14
伝 14
何 14
健 14
像 14
其 14
啊 14
喪 14
均 14
妙 14
宿 14
就 14
征 14
惜 14
慰 14
拭 14
掃 14
操 14
暑 14
棚 14
残 14
殿 14
没 14
浸 14
渋 14
溢 14
滴 14
漠 14
炉 14
熊 14
特 14
狭 14
畑 14
盲 14
真 14
祖 14
禁 14
稚 14
縄 14
肥 14
蓄 14
藻 14
蜜 14
蟲 14
见 14
觉 14
評 14
貫 14
赦 14
酔 14
鏡 14
阪 14
陪 14
隅 14
領 14
頻 14
 14
J 13
ccess 13
gn 13
iew 13
illion 13
lex 13
ooking 13
par 13
sue 13
▁appre 13
▁destro 13
▁hen 13
▁hosp 13
▁pie 13
▁thin 13
▁veh 13
▁慣 13
▁攻 13
▁施 13
▁誇 13
▁邪 13
▁酔 13
、 13
イツ 13
両 13
乏 13
伙 13
侮 13
保 13
傍 13
兼 13
匠 13
卑 13
后 13
喜 13
喰 13
塚 13
塩 13
墜 13
壮 13
奏 13
如 13
妬 13
嫉 13
对 13
対 13
己 13
広 13
彩 13
彫 13
惚 13
惧 13
懲 13
戚 13
担 13
提 13
摘 13
施 13
栗 13
檻 13
欠 13
湯 13
湿 13
獣 13
現 13
痩 13
砕 13
祐 13
穫 13
絡 13
老 13
聞 13
胃 13
腕 13
舌 13
蓋 13
訊 13
談 13
込 13
郊 13
錯 13
闇 13
雰 13
鶴 13
@ 12
BI 12
augh 12
formation 12
iced 12
iful 12
oney 12
ould 12
ten 12
unch 12
▁Ph 12
▁afric 12
▁ey 12
▁langu 12
▁quest 12
▁sever 12
▁うま 12
▁かつ 12
▁当たり 12
▁愚 12
▁挑 12
▁捜 12
▁芸 12
▁裁 12
⦅ 12
促 12
倣 12
免 12
准 12
初 12
别 12
动 12
南 12
参 12
右 12
君 12
喝 12
妥 12
寛 12
影 12
御 12
拷 12
旋 12
枠 12
架 12
栽 12
案 12
棺 12
椎 12
洪 12
烈 12
煮 12
矛 12
种 12
稲 12
窓 12
綱 12
編 12
耳 12
腸 12
膜 12
致 12
芸 12
芽 12
莉 12
蘇 12
訓 12
試 12
貴 12
貼 12
軟 12
輸 12
選 12
醒 12
鉢 12
銃 12
鋭 12
鎮 12
韓 12
頬 12
魔 12
itary 11
most 11
selves 11
° 11
▁Cour 11
▁bec 11
▁bott 11
▁hung 11
▁lone 11
▁norm 11
▁スピ 11
▁ハハ 11
▁什 11
▁唯 11
▁諦 11
⦆ 11
】 11
へ 11
ほ 11
ートル 11
三 11
乞 11
予 11
从 11
傲 11
働 11
冊 11
冠 11
創 11
励 11
北 11
卓 11
協 11
占 11
卿 11
叱 11
嗅 11
嘆 11
垂 11
塊 11
塾 11
奪 11
娘 11
婆 11
孝 11
寧 11
州 11
恒 11
惹 11
拍 11
掘 11
撒 11
斉 11
暗 11
枝 11
梅 11
梨 11
況 11
注 11
浪 11
深 11
漂 11
濃 11
濡 11
炭 11
爽 11
猫 11
獲 11
皿 11
益 11
監 11
秀 11
穂 11
窟 11
粗 11
糧 11
紫 11
紳 11
緩 11
胆 11
脇 11
腎 11
航 11
薦 11
蘭 11
襲 11
訟 11
詮 11
諜 11
謝 11
謹 11
譲 11
逐 11
逸 11
遍 11
違 11
郡 11
郵 11
釘 11
鉄 11
鋼 11
雅 11
鼓 11
ael 10
avy 10
azy 10
ffe 10
ivil 10
ken 10
ledge 10
onent 10
utes 10
vern 10
where 10
▁Res 10
▁Sy 10
▁corre 10
▁goddam 10
▁immedi 10
▁respons 10
▁sus 10
▁wed 10
▁かし 10
▁ロボ 10
▁亡 10
▁委 10
▁準 10
☎ 10
〜 10
ぱい 10
わい 10
イント 10
ユ 10
ワーク 10
丹 10
乃 10
乙 10
于 10
什 10
仙 10
伐 10
併 10
侍 10
俳 10
傑 10
凛 10
吧 10
吾 10
唇 10
垣 10
堕 10
夏 10
妃 10
富 10
寸 10
尽 10
尿 10
峰 10
巫 10
弘 10
弟 10
憑 10
或 10
找 10
振 10
搭 10
摩 10
撲 10
昧 10
柴 10
槍 10
汰 10
沼 10
渇 10
溜 10
濯 10
照 10
煩 10
爱 10
牙 10
牢 10
狂 10
猶 10
痴 10
癖 10
範 10
粋 10
経 10
经 10
羅 10
肪 10
臭 10
艇 10
蒸 10
蔽 10
薫 10
裏 10
裡 10
規 10
警 10
该 10
軒 10
醜 10
隠 10
馴 10
黙 10
, 9
andon 9
bye 9
cially 9
eah 9
ffer 9
obal 9
omb 9
reme 9
rent 9
▁Eng 9
▁bes 9
▁exch 9
▁medic 9
▁meth 9
▁num 9
▁saf 9
▁unfortun 9
▁労 9
▁忘 9
▁疲 9
▁練 9
▁障 9
さん 9
クノロジー 9
为 9
他 9
八 9
冥 9
凡 9
功 9
労 9
吊 9
哦 9
啦 9
安 9
实 9
寝 9
应 9
廻 9
弄 9
弥 9
悼 9
承 9
披 9
抹 9
押 9
掻 9
昭 9
曖 9
朋 9
桃 9
汁 9
汝 9
洗 9
浮 9
渉 9
猛 9
省 9
礁 9
祭 9
秩 9
穴 9
窃 9
窒 9
紗 9
綾 9
股 9
腺 9
舟 9
苛 9
茜 9
萌 9
藍 9
虜 9
蛍 9
衡 9
衰 9
裁 9
詫 9
該 9
誤 9
課 9
貌 9
賄 9
賛 9
輩 9
轄 9
遊 9
鉛 9
错 9
隻 9
髄 9
鷹 9
allen 8
band 8
chool 8
eed 8
ellig 8
fic 8
gram 8
ocr 8
oof 8
osp 8
outh 8
uly 8
▁bir 8
▁compan 8
▁fest 8
▁inn 8
▁oce 8
▁peop 8
▁stre 8
▁tok 8
▁アイデ 8
▁存 8
▁繰 8
ヅ 8
丿 8
亀 8
云 8
傘 8
况 8
凝 8
剃 8
厳 8
发 8
吃 8
啓 8
噴 8
増 8
姓 8
娼 8
孔 8
弓 8
徐 8
従 8
怒 8
恋 8
戯 8
拉 8
挿 8
描 8
搬 8
攻 8
昏 8
映 8
曰 8
朽 8
杏 8
枯 8
樫 8
歌 8
歪 8
殻 8
氏 8
汗 8
浩 8
済 8
渚 8
湧 8
漕 8
炎 8
狐 8
琴 8
環 8
疎 8
疼 8
痺 8
瞳 8
祉 8
移 8
筒 8
类 8
粘 8
絵 8
綿 8
耐 8
胎 8
芳 8
芹 8
茂 8
茉 8
虎 8
虹 8
親 8
託 8
让 8
谢 8
貿 8
贄 8
軽 8
还 8
途 8
銘 8
銭 8
鍋 8
頂 8
餓 8
駆 8
骸 8
鬼 8
鶏 8
麦 8
 8
* 7
NA 7
ders 7
heart 7
lie 7
odies 7
riage 7
stem 7
ther 7
urity 7
• 7
※ 7
▁auth 7
▁cloth 7
▁cred 7
▁earl 7
▁gir 7
▁lang 7
▁relation 7
▁rese 7
▁カメ 7
▁歴 7
▁瞬 7
▁迎 7
イレ 7
万 7
亭 7
亲 7
们 7
傭 7
僅 7
写 7
凵 7
办 7
叫 7
吗 7
吠 7
呀 7
哺 7
喩 7
嘛 7
奢 7
妊 7
學 7
宙 7
宴 7
寅 7
將 7
尊 7
崖 7
帆 7
并 7
府 7
弦 7
徒 7
恶 7
憂 7
憤 7
憧 7
應 7
懺 7
扇 7
捜 7
据 7
掟 7
斜 7
昆 7
桂 7
槽 7
樽 7
欢 7
歯 7
泰 7
泳 7
淡 7
清 7
漢 7
澄 7
瀕 7
烏 7
牛 7
玲 7
畫 7
疽 7
登 7
皮 7
看 7
窮 7
笛 7
粒 7
紐 7
罰 7
群 7
耕 7
胞 7
脊 7
腿 7
舗 7
苗 7
蓮 7
赴 7
跟 7
辻 7
这 7
进 7
遡 7
錬 7
鐘 7
长 7
陶 7
隆 7
隣 7
隼 7
雇 7
雪 7
非 7
鞄 7
题 7
鬱 7
點 7
& 6
asons 6
enter 6
itness 6
itten 6
owers 6
¶ 6
▁Instit 6
▁anim 6
▁chocol 6
▁dif 6
▁diffic 6
▁innoc 6
▁しば 6
▁なき 6
▁まさ 6
▁もち 6
▁ヶ 6
▁与 6
▁互 6
「 6
〝 6
だい 6
ちゃん 6
っき 6
んど 6
ケル 6
丈夫 6
且 6
五 6
亞 6
亮 6
佃 6
佳 6
俊 6
俗 6
借 6
債 6
关 6
决 6
勲 6
包 6
卍 6
卵 6
厨 6
变 6
哈 6
哪 6
喘 6
喫 6
嗯 6
嚢 6
夷 6
奔 6
姪 6
孩 6
它 6
宵 6
封 6
尺 6
岳 6
崇 6
巴 6
师 6
希 6
幣 6
忍 6
思 6
总 6
懇 6
拓 6
採 6
擁 6
擦 6
擬 6
斐 6
斗 6
暫 6
曇 6
曾 6
杀 6
梦 6
棲 6
楓 6
楼 6
榎 6
欄 6
比 6
汐 6
沌 6
泡 6
漬 6
羽 6
聖 6
脚 6
荒 6
被 6
責 6
賢 6
辞 6
銀 6
雑 6
雨 6
騒 6
atell 5
earch 5
initely 5
iverse 5
joy 5
mas 5
ng 5
onse 5
oub 5
round 5
ully 5
uten 5
vous 5
▁behav 5
▁cit 5
▁includ 5
▁lik 5
▁めで 5
▁卒 5
▁妊 5
▁恐ろ 5
》 5
いは 5
そこ 5
個 5
僚 5
公 5
医 5
午 5
姿 5
宗 5
届 5
忙 5
把 5
拾 5
捕 5
探 5
旧 5
森 5
殴 5
焦 5
眼 5
短 5
肢 5
胸 5
踏 5
迷 5
遺 5
階 5
飲 5
魂 5
ablished 4
apan 4
aterials 4
aven 4
cuss 4
dred 4
gery 4
ilar 4
iod 4
iron 4
ogn 4
oice 4
pose 4
thing 4
ucle 4
▁En 4
▁energ 4
▁freed 4
▁simp 4
▁stra 4
▁suic 4
▁wel 4
▁wom 4
▁おそ 4
▁ほと 4
▁まった 4
▁ニューヨ 4
▁患 4
▁掃 4
▁携 4
▁環 4
▁興 4
。 4
ずれ 4
デオ 4
パス 4
メリカ 4
ロジー 4
ンビ 4
ヶ 4
並 4
今 4
喚 4
奥 4
宝 4
左 4
康 4
扱 4
投 4
抱 4
損 4
携 4
昔 4
核 4
汚 4
沈 4
為 4
砂 4
脱 4
般 4
訪 4
誓 4
貸 4
這 4
麻 4
adow 3
artment 3
body 3
epartment 3
ght 3
omach 3
ortun 3
ouble 3
upid 3
vironment 3
~ 3
▁beaut 3
▁doct 3
▁excell 3
▁fam 3
▁gent 3
▁goog 3
▁hus 3
▁pregn 3
▁wer 3
▁wond 3
▁けれ 3
▁こんに 3
▁さす 3
▁ちょう 3
▁コント 3
▁偶 3
▁粒 3
▁駄 3
クノ 3
ンスター 3
偶 3
僕 3
兄 3
六 3
凄 3
勉 3
卒 3
基 3
奮 3
寂 3
寒 3
彼 3
支 3
械 3
概 3
武 3
歳 3
永 3
泣 3
腫 3
著 3
街 3
衝 3
輝 3
青 3
駐 3
$ 2
-20 2
cum 2
esome 2
haps 2
idual 2
iliar 2
inese 2
ittle 2
lfriend 2
medi 2
ready 2
sych 2
ween 2
wn 2
▁apparent 2
▁chang 2
▁lear 2
▁pict 2
▁sud 2
▁すべ 2
▁まる 2
▁オフィ 2
▁宇 2
▁材 2
♪ 2
」 2
いや 2
ちは 2
ども 2
はよう 2
ぶん 2
ジェクト 2
ターン 2
ヒー 2
依 2
偽 2
円 2
博 2
只 2
召 2
吐 2
吹 2
好き 2
妖 2
姉 2
姫 2
市 2
幻 2
怖 2
恥 2
択 2
捨 2
撮 2
旅 2
昨 2
株 2
模 2
横 2
此 2
氷 2
泥 2
混 2
猿 2
私 2
終 2
繰 2
臨 2
誕 2
貧 2
赤 2
踊 2
追 2
驚 2
amily 1
cumst 1
iend 1
lebr 1
ngth 1
riend 1
urch 1
viron 1
▁Acc 1
▁absol 1
▁bey 1
▁coffe 1
▁dire 1
▁imposs 1
▁indiv 1
▁イギ 1
▁イメ 1
▁コミュ 1
▁ロンド 1
▁勉 1
▁匂 1
▁契 1
▁惑 1
▁維 1
▁訓 1
▁逮 1
▁駐 1
《 1
そろ 1
の中 1
の子 1
ろん 1
ステム 1
ッセージ 1
ピュー 1
余 1
倍 1
停 1
再 1
冷 1
副 1
努 1
危 1
叔 1
叩 1
呼 1
商 1
四 1
執 1
夕 1
嬢 1
孫 1
完 1
専 1
崩 1
建 1
忘 1
悩 1
憎 1
拒 1
拡 1
授 1
改 1
故 1
救 1
昼 1
普 1
最 1
未 1
桜 1
燃 1
狩 1
研 1
礎 1
秒 1
稼 1
絞 1
若 1
英 1
複 1
誘 1
講 1
財 1
辛 1
釣 1
鍵 1
隷 1
靴 1
預 1
頼 1
madeupword0000 0
madeupword0001 0
