▁。 94462
▁. 87357
▁は 71617
▁ 48488
▁に 42083
▁た 39870
▁の 38907
▁を 34938
▁the 32906
▁て 29443
▁i 26427
▁が 25199
▁to 23907
▁' 19839
▁彼 18715
▁? 18570
▁a 18429
▁is 17137
▁you 17022
▁で 15901
s 15359
▁し 15300
▁he 14400
▁私 13882
▁か 12763
▁ない 12744
▁だ 11458
▁in 11349
▁と 11172
▁、 10346
▁of 10077
t 9964
▁です 8894
▁it 8739
▁いる 8602
い 8256
▁, 8219
▁彼女 8096
ed 7740
▁ます 7645
▁その 7629
▁い 7578
▁も 7426
▁was 7128
▁for 6933
▁that 6630
▁she 6611
▁my 6414
▁this 6411
▁tom 6409
▁トム 6396
ing 6365
▁な 6197
▁こと 5955
っ 5912
▁me 5750
▁have 5610
▁ん 5475
▁his 5377
▁we 5309
▁よ 5042
▁at 4912
▁on 4851
▁are 4632
▁この 4539
m 4457
る 4405
し 4388
▁do 4366
▁with 4336
▁not 4281
▁be 4200
▁する 4198
り 4013
く 3951
▁her 3936
▁as 3930
▁ある 3861
▁can 3841
▁your 3841
y 3801
ん 3706
er 3675
▁お 3613
▁will 3571
▁what 3436
e 3384
▁あなた 3276
▁何 3211
▁and 3132
▁don 3047
▁から 2991
▁there 2977
▁なかっ 2976
か 2934
▁him 2895
▁has 2847
▁go 2816
▁君 2801
れ 2778
▁ませ 2760
ら 2689
▁like 2659
▁まし 2643
ly 2601
▁c 2601
▁人 2598
▁ば 2588
es 2546
▁それ 2537
▁all 2506
▁up 2500
▁ら 2472
▁s 2434
▁by 2416
ll 2412
き 2388
▁no 2316
u 2313
え 2243
▁p 2239
▁from 2221
▁私たち 2201
a 2198
▁t 2198
▁よう 2177
al 2167
▁out 2129
▁an 2124
▁time 2105
▁f 2088
ー 2075
c 2074
▁had 2048
▁they 2046
d 2042
▁b 2004
▁見 2002
▁さ 1986
▁very 1942
▁m 1940
i 1936
わ 1932
o 1929
▁れ 1918
▁r 1917
▁いい 1904
▁たい 1898
n 1878
▁good 1873
▁だっ 1871
re 1846
▁l 1840
▁so 1835
▁ね 1824
▁how 1817
ン 1816
▁d 1811
▁about 1804
う 1791
b 1782
en 1778
▁なら 1770
▁時 1765
▁今 1757
▁when 1753
l 1748
め 1740
▁did 1727
▁へ 1727
h 1721
▁! 1708
▁どう 1708
▁あり 1691
▁なさい 1688
▁家 1687
▁これ 1663
ent 1662
f 1657
▁本 1656
▁get 1654
▁am 1635
▁come 1630
or 1628
▁know 1625
p 1619
▁なっ 1617
▁want 1612
it 1610
ま 1606
le 1603
▁一 1601
▁please 1590
ve 1580
▁st 1579
▁see 1569
at 1552
▁were 1547
▁if 1542
▁だろう 1541
▁h 1535
▁き 1534
ス 1526
▁here 1514
人 1514
しい 1507
け 1482
▁好き 1474
▁中 1450
ar 1445
▁would 1438
▁でき 1438
▁来 1435
▁think 1432
ic 1419
▁should 1418
▁くれ 1415
▁ください 1409
▁もう 1402
▁てる 1394
ad 1378
g 1368
ur 1368
▁than 1355
つ 1354
▁going 1336
▁まで 1335
▁1 1333
▁e 1332
イ 1330
▁been 1328
▁work 1328
r 1324
▁g 1322
in 1321
▁誰 1313
on 1310
▁とても 1293
▁our 1283
▁仕事 1280
et 1279
▁but 1275
▁one 1274
さ 1256
▁僕 1254
▁自分 1249
▁mary 1244
▁ここ 1242
▁せ 1241
▁take 1234
▁car 1229
▁なく 1224
▁大 1221
▁もの 1218
み 1214
▁メアリー 1213
▁出 1213
▁行っ 1203
▁day 1198
▁any 1193
▁man 1184
▁now 1177
▁言っ 1171
▁より 1155
▁much 1150
▁なけれ 1144
▁us 1143
▁つ 1138
id 1136
▁って 1135
▁some 1130
▁そう 1125
▁got 1120
▁more 1119
▁who 1118
▁ch 1115
▁ため 1112
▁日 1112
il 1111
▁went 1111
▁last 1107
▁たら 1099
▁時間 1098
ation 1093
▁事 1093
▁よく 1091
▁年 1087
▁book 1086
ate 1077
▁school 1074
▁なる 1073
▁気 1062
v 1060
▁つい 1055
▁あ 1046
て 1045
物 1045
▁車 1040
▁must 1039
▁let 1037
▁す 1036
す 1036
end 1031
▁や 1029
as 1027
▁home 1020
▁" 1016
▁v 1016
に 1000
かっ 997
▁father 996
▁made 994
▁make 992
om 989
▁前 989
▁too 987
▁well 985
▁あの 983
▁help 980
▁行く 979
▁may 975
▁今日 975
▁2 974
▁new 971
▁money 969
▁w 967
▁sp 962
▁could 957
▁off 957
▁でしょう 949
▁house 944
ル 942
▁english 938
▁すぐ 937
ろ 937
▁old 932
w 930
▁j 930
▁sh 924
▁られ 920
▁n 903
▁持っ 903
▁k 901
▁tomorrow 901
▁long 899
▁hard 895
▁tell 892
▁どこ 892
est 888
た 888
ce 885
▁didn 883
▁where 880
ine 879
▁people 877
▁say 874
▁やっ 866
▁play 862
am 861
ri 859
▁英語 857
is 855
▁ご 852
▁today 851
▁or 848
▁over 847
▁ま 847
▁方 843
▁de 841
ers 839
▁why 839
▁そんな 839
ot 836
se 836
▁明日 834
▁食べ 834
▁room 833
▁手 832
▁just 825
age 823
▁after 822
▁べき 822
▁勉強 822
▁many 820
ク 819
▁上 816
▁every 812
▁se 810
▁two 810
▁行き 810
▁よい 806
な 805
▁way 804
▁o 800
▁put 797
▁back 796
▁before 796
▁better 794
▁always 791
▁あっ 791
▁came 789
▁わ 789
▁eat 788
▁本当 786
▁into 781
▁rain 781
▁私達 781
▁分 779
▁学校 779
▁思う 779
ure 777
▁never 775
▁pr 773
▁yesterday 772
合 771
▁french 770
ie 769
▁話 767
▁いけ 766
▁必要 765
▁部屋 765
ち 764
▁speak 763
ば 763
▁話し 762
ート 762
and 760
ol 760
が 760
ion 759
者 759
▁知っ 756
▁mother 755
▁lot 754
▁まだ 752
▁日本 752
▁next 751
▁app 747
an 744
▁問題 743
▁boy 740
ch 739
▁昨日 739
▁無 739
▁いつも 736
ッ 735
▁いつ 732
▁フランス語 731
▁ところ 728
び 728
ap 727
ver 724
ct 723
▁3 721
▁little 720
▁need 720
▁ス 719
げ 719
ance 718
レ 716
red 714
▁下さい 714
ved 711
▁目 710
▁子供 709
▁電話 708
ice 707
ise 704
▁down 703
▁我々 701
▁night 698
▁soon 698
▁雨 698
ist 694
▁does 693
▁いう 693
▁思っ 693
un 692
▁week 692
▁最 692
▁父 692
▁said 689
える 689
と 689
▁right 687
▁years 683
ant 682
▁walk 681
▁re 675
▁できる 675
▁み 675
ut 672
▁不 670
▁three 669
しく 668
ter 665
▁そこ 665
▁言う 663
ag 662
語 662
▁なり 660
▁つもり 659
▁さん 657
事 657
im 655
st 654
▁look 654
▁give 652
us 650
▁read 647
▁いっ 647
ment 645
▁care 641
▁late 637
▁pro 636
▁じゃ 635
ける 633
▁teacher 632
▁でし 631
せ 630
▁男 629
じ 628
▁took 627
▁考え 627
▁少し 626
▁plan 624
▁con 622
▁先生 622
ぶ 621
k 614
▁such 614
▁間 612
▁こ 611
▁only 610
▁morning 609
▁doesn 608
▁left 608
▁bl 604
▁5 603
▁children 603
▁新しい 603
▁お金 602
手 602
▁10 601
▁たち 598
ide 596
▁great 595
▁keep 595
会 592
方 591
ight 590
▁year 590
▁知ら 588
▁train 587
▁思い 586
年 586
▁たくさん 585
然 585
▁聞い 584
▁ましょう 581
os 580
▁ex 577
中 577
▁だけ 576
▁とき 576
▁stay 575
気 575
ge 574
▁cold 574
ジ 571
▁dog 570
れる 569
ies 568
ity 568
▁ほど 567
▁still 566
ill 564
▁nothing 564
▁自 564
▁anything 563
▁しまっ 563
む 563
▁really 561
▁li 559
ive 558
▁their 558
学 558
▁call 557
▁犬 556
▁again 552
的 552
ary 551
▁kind 550
▁月 549
▁- 548
▁手紙 548
▁live 546
▁後 545
▁talk 544
▁全 544
▁br 541
▁un 541
hed 540
ラ 540
▁cl 539
ast 538
▁ar 537
▁ず 537
▁isn 534
ake 533
ite 533
▁run 532
ow 530
ves 530
▁life 530
▁来る 530
▁なん 529
ard 528
▁girl 528
▁something 525
▁su 521
▁cannot 518
▁first 515
▁once 515
▁入 515
▁ア 514
ld 513
▁japan 512
ful 511
▁watch 511
も 511
▁住ん 509
▁もっと 507
ning 505
▁other 504
▁love 503
▁バス 503
ain 500
▁away 499
▁「 498
▁」 498
▁bus 497
ツ 497
▁gave 496
▁th 494
0 493
▁buy 493
ci 491
um 491
▁wor 491
▁寝 491
▁計画 491
▁sm 490
▁着 490
▁study 489
▁young 489
▁行 488
力 487
▁la 486
プ 486
ac 485
▁母 485
▁class 484
ール 484
▁ten 482
▁these 482
ound 481
ous 481
ック 481
▁bad 480
▁party 480
▁空 480
z 479
▁brother 479
▁gr 479
ど 479
▁comp 477
▁use 476
だ 476
▁歌 475
行 475
ort 474
▁saw 474
べ 474
▁without 473
▁実 472
▁friends 470
▁news 470
▁show 465
ose 464
ず 464
ター 464
▁friend 463
▁letter 463
▁水 463
▁often 462
▁accident 461
▁hand 461
▁買っ 461
そ 461
動 461
ence 460
▁feel 460
▁会 460
こ 460
qu 459
▁al 459
間 459
▁早く 458
▁友達 457
ck 456
▁fr 456
▁met 456
▁結婚 456
ress 455
▁教え 454
he 453
▁job 453
▁le 452
▁れる 452
前 451
ty 450
op 448
▁一緒 448
▁教 448
ving 447
▁days 447
▁best 446
▁open 446
▁station 446
ood 445
▁y 445
▁doctor 444
▁sure 444
▁leave 443
▁ほとんど 443
▁far 442
ig 440
▁lost 440
▁変 440
▁道 439
コ 439
ぎ 438
ご 438
日 437
▁stop 436
▁地 436
▁金 436
▁帰 433
▁door 432
ue 431
▁dr 431
▁used 431
hes 430
▁パ 430
▁同じ 430
書 430
day 429
▁child 429
ir 428
▁told 428
▁休 428
▁病気 427
意 427
▁少年 426
▁them 425
▁合 425
▁多く 425
▁チ 424
▁japanese 423
▁won 423
▁赤 423
心 423
▁name 422
▁problem 422
▁成功 422
ざ 422
x 421
▁次 421
▁difficult 418
▁パーティー 418
▁matter 417
▁which 417
▁みんな 417
子 416
▁att 415
itt 414
▁happy 414
▁一番 414
▁try 413
▁たく 413
▁くらい 412
▁会っ 412
▁boston 411
▁question 411
▁ボストン 411
あ 411
度 411
▁books 410
ry 409
▁drink 409
週 409
▁一人 408
▁国 408
▁忘れ 408
▁being 407
▁hear 407
▁朝 407
よう 407
▁当 406
▁医者 405
▁fail 403
▁出発 402
ted 401
▁true 399
▁co 398
▁乗 398
かり 398
. 397
▁駅 397
で 397
用 397
▁gu 396
イン 396
man 395
▁bought 394
理 393
ove 392
▁sister 392
▁数 392
がっ 391
代 391
家 390
▁che 389
▁wait 389
ited 388
▁どの 388
▁ほ 388
▁ever 387
▁because 386
▁fl 385
▁あまり 385
▁楽し 385
スト 385
▁meeting 384
▁wh 383
th 382
▁month 382
▁ケ 382
▁early 381
▁pre 381
▁出来 381
▁悪い 379
able 378
▁person 378
▁sat 378
▁タ 378
▁テレビ 378
▁beautiful 377
▁bo 377
▁mind 375
▁良い 375
ied 374
▁rep 374
▁sa 374
▁先 374
▁話す 374
▁あげ 373
▁入っ 373
▁始め 373
ious 372
ust 372
▁air 372
▁cr 372
▁heard 372
▁looking 372
▁sleep 372
▁とっ 372
▁飲 372
row 371
▁busy 371
▁作 371
▁切 371
▁遅れ 371
lf 370
▁泳 370
ess 369
▁sing 369
▁サ 369
フ 369
ャ 369
ign 368
▁qu 368
▁試験 368
ated 367
▁find 367
▁seen 367
▁う 367
▁事故 367
▁使 367
▁行か 367
▁bed 366
▁ずっと 366
▁向 366
▁多 366
▁found 365
▁son 365
▁二 365
▁夜 365
ond 364
ud 364
▁sc 364
▁yet 364
▁うち 364
▁アメリカ 364
ね 364
分 364
▁thought 363
▁while 363
▁しよう 363
▁起き 363
ven 362
▁seems 362
▁ほう 362
バ 362
ick 360
▁ha 360
▁since 360
▁どんな 360
▁旅行 360
▁ask 359
▁会い 359
▁学 359
ミ 359
▁カ 358
▁music 357
▁名前 357
▁dis 356
air 355
akes 355
mb 355
▁students 355
▁ジ 355
▁通 355
や 355
出 355
国 354
所 354
our 353
▁見る 353
ナ 353
▁act 352
▁own 352
▁映画 352
▁選 352
々 352
▁ab 351
▁exp 351
▁water 351
▁受け 351
▁子 351
▁thing 350
▁見え 350
通 350
▁five 349
▁ちゃ 349
ach 348
▁バ 348
▁他 348
▁解 348
▁around 347
▁learn 347
▁なんて 347
▁シ 347
▁訪 347
▁高 347
les 346
▁くる 346
ition 345
ost 345
▁急 345
▁物 345
場 345
oss 344
fe 343
▁すべて 343
▁息子 343
まっ 343
▁asked 342
▁most 342
▁聞 342
カ 342
▁enough 341
▁待っ 341
▁残 341
ぞ 341
▁jo 340
▁looked 340
▁信じ 340
▁few 339
▁rec 339
ip 338
▁health 338
▁turn 337
▁world 336
▁同 336
▁愛 336
▁ill 334
▁ボ 334
リ 334
生 333
▁country 332
▁acc 331
▁ちょっと 331
▁音楽 331
▁pass 330
▁war 330
▁あれ 330
さん 329
ギ 327
if 326
▁big 326
▁しか 326
are 325
▁cont 325
▁いく 325
▁学生 325
ト 325
月 325
▁snow 324
▁木 324
▁読ん 324
ド 324
▁mo 323
▁parents 323
▁以 323
づ 323
ail 322
お 322
ack 321
ay 321
▁answer 321
▁part 321
▁運 321
ロ 321
都 321
▁6 320
▁couldn 320
らい 320
▁story 319
▁weather 319
タ 319
法 319
▁believe 318
▁john 318
▁tr 318
▁上手 318
▁高い 318
▁same 317
▁wrong 317
ラン 317
▁business 316
▁花 316
告 316
ock 315
▁歳 315
▁言わ 315
員 315
res 314
ェ 314
食 314
▁fa 313
▁place 313
▁ト 313
▁眠 313
▁通り 313
use 312
▁ジョン 312
▁sorry 311
▁tired 311
▁wonder 311
晩 311
▁another 310
▁coffee 310
▁end 310
▁understand 310
gg 309
▁頭 309
の 309
▁meet 308
▁tea 308
▁win 308
▁かけ 308
▁町 308
▁already 307
▁pain 307
▁po 307
▁そ 307
▁発 307
▁tennis 306
▁テニス 306
業 306
▁able 305
▁alone 305
▁得 304
ム 304
▁30 303
▁abs 303
▁mr 303
▁真 303
all 302
▁nice 302
▁wanted 302
▁悪 302
▁おい 301
▁健康 301
▁列車 301
▁cat 300
▁everything 300
▁大きな 300
める 300
act 299
ect 299
▁food 299
ra 298
▁coming 298
▁doing 298
▁looks 298
▁助け 298
▁親切 298
▁運転 298
金 298
j 297
▁himself 297
▁reading 297
▁また 297
▁約束 297
ore 296
▁done 296
▁things 295
▁ド 295
▁引 295
かる 295
ul 294
▁americ 294
▁tele 294
▁出し 294
▁現 294
論 294
▁imp 293
▁取り 293
在 293
body 292
▁笑 292
ory 291
▁less 291
▁コーヒー 291
te 290
▁afraid 290
▁idea 290
▁set 290
mp 289
▁sec 289
▁言い 289
車 289
▁lo 288
▁police 288
▁外 288
ワ 288
▁くれる 287
▁けど 287
▁ドア 287
▁疲れ 287
▁雪 287
▁game 286
▁rest 286
▁write 285
▁兄 285
▁帰っ 285
▁言 285
たい 285
▁family 284
▁married 284
▁近 284
ニ 284
up 283
▁thank 283
▁town 283
▁どちら 283
▁ベ 283
▁夢 283
▁長い 283
ット 283
マ 283
望 283
ank 282
▁ent 282
▁getting 282
▁start 282
▁下 282
▁時計 282
曜日 282
▁finished 281
▁入れ 281
▁質問 281
▁達 281
▁hours 280
▁stand 280
▁ニュー 280
士 280
ject 279
▁4 279
▁called 279
▁even 279
▁quite 279
▁those 279
▁tokyo 279
▁海 279
▁経 279
▁arrived 278
▁supp 278
▁決 278
ord 277
▁kn 277
▁pa 277
▁以上 277
▁夏 277
情 277
格 277
ep 276
▁likes 276
▁through 276
▁働 276
▁楽 276
▁開 276
ズ 276
▁fore 275
▁ne 275
▁ran 275
▁ふ 275
▁回 275
▁大き 275
▁毎日 275
チ 275
▁both 274
▁summer 274
▁swim 274
▁大変 274
▁文 274
▁確 274
上 274
ness 273
▁寒 273
パ 273
▁cons 272
ーム 272
anc 271
▁te 271
▁すぎ 271
▁失敗 271
▁強 271
ア 271
後 271
▁ob 270
▁park 270
▁playing 270
▁背 270
ブ 270
母 270
▁inv 269
▁visit 269
▁働い 269
▁調 269
▁飛行機 269
ans 268
▁easy 268
▁hun 268
▁yourself 268
▁しれ 268
こう 268
ピ 268
ense 267
▁city 267
▁small 267
▁一度 267
▁体 267
▁東京 267
▁欲しい 267
▁遅 267
入 267
ered 266
ult 266
▁large 266
▁両親 266
▁毎 266
断 266
▁exc 265
▁goes 265
▁hope 265
▁心配 265
▁話せ 265
ab 264
切 264
口 264
ried 263
▁word 263
▁こんな 263
▁若い 263
オ 263
実 263
ms 262
▁comes 262
▁dep 262
▁とも 262
▁もし 262
▁書い 262
▁機 262
oud 261
▁each 261
▁turned 261
▁つけ 261
▁死ん 261
ally 260
ater 260
▁ac 260
▁fell 260
▁travel 260
▁宿題 260
▁小 260
▁fact 259
▁wr 259
▁会社 259
▁外国 259
▁失 259
▁明 259
▁歩い 259
▁死 259
art 258
ret 258
▁picture 258
▁生徒 258
ea 257
▁dinner 257
▁いた 257
ro 256
▁ago 256
▁fast 256
▁minutes 256
▁street 256
▁ドル 256
▁座っ 256
しかっ 256
ever 255
▁high 255
▁per 255
▁prom 255
▁until 255
▁わから 255
▁ラ 255
▁生 255
▁遊 255
内 255
lain 254
▁company 254
▁window 254
▁世界 254
▁猫 254
▁窓 254
任 254
色 254
訳 254
▁20 253
▁fish 253
▁wish 253
▁閉 253
oke 252
▁eyes 252
▁天気 252
▁太 252
▁美しい 252
期 252
▁sk 251
▁succeed 251
▁tv 251
▁u 251
▁キ 251
▁勝 251
▁呼 251
▁川 251
▁泣 251
▁知り 251
リス 251
込 251
▁comm 250
▁everyone 250
▁present 250
▁tall 250
▁返 250
館 250
oo 249
osed 249
▁miss 249
▁全く 249
▁立 249
▁過 249
▁homework 248
▁もらっ 248
▁何時 248
▁友人 248
▁困 248
▁生き 248
▁adv 247
▁head 247
▁コン 247
▁歩 247
▁連 247
定 247
議 247
▁sit 246
▁いか 246
▁やめ 246
▁やり 246
▁正 246
ネ 246
話 246
▁fun 245
▁ひど 245
▁利 245
▁新 245
▁顔 245
味 245
故 245
▁enjoy 244
▁sun 244
▁sunday 244
▁レ 244
ろう 244
ish 243
▁lives 243
▁river 243
▁success 243
▁times 243
▁必ず 243
▁意見 243
▁痛 243
▁絵 243
▁風 243
ool 242
▁office 242
▁ser 242
▁うまく 242
▁すれ 242
▁言葉 242
は 242
ばら 242
▁gone 241
▁light 241
▁なぜ 241
▁生活 241
らし 241
og 240
▁cook 240
▁感 240
▁昼 240
▁足 240
性 240
ang 239
▁mat 239
▁pay 239
▁waiting 239
▁いただけ 239
▁交 239
▁早 239
▁決して 239
▁買い 239
▁降り 239
長 239
el 238
fort 238
one 238
▁shop 238
▁student 238
▁イ 238
▁写真 238
▁注意 238
記 238
▁free 237
▁rem 237
▁店 237
▁料理 237
▁起こ 237
ぼ 237
▁試合 236
▁flow 235
▁having 235
▁myself 235
▁near 235
▁wife 235
▁はず 235
▁コ 235
▁度 235
▁洗 235
っと 235
▁add 234
▁exam 234
▁remember 234
ポ 234
外 234
▁important 233
▁listen 233
▁talking 233
▁tonight 233
▁建 233
茶 233
ire 232
▁caught 232
▁cut 232
▁interesting 232
▁難しい 232
ダ 232
大 232
席 232
様 232
ong 231
ub 231
uck 231
▁baby 231
▁began 231
▁coll 231
▁smoking 231
▁大学 231
▁役 231
ark 230
▁face 230
▁gl 230
▁lea 230
▁truth 230
▁ク 230
▁クラス 230
言 230
▁return 229
▁sick 229
▁予定 229
▁安 229
00 228
ward 228
▁living 228
▁wants 228
▁どれ 228
▁世 228
▁習 228
ガ 228
報 228
ear 227
iz 227
▁angry 227
▁tw 227
▁山 227
▁戦 227
▁自転車 227
ised 226
▁reg 226
▁short 226
▁table 226
▁説明 226
ーン 226
ily 225
▁7 225
▁become 225
▁全部 225
▁直 225
▁rel 224
▁trip 224
▁似 224
▁着い 224
iet 223
reat 223
▁ele 223
▁happened 223
▁プ 223
▁一生懸命 223
▁少女 223
▁申し 223
▁答え 223
▁結 223
▁関 223
▁離 223
便 223
図 223
段 223
als 222
▁ca 222
▁sight 222
▁ひ 222
念 222
ak 221
▁broke 221
▁dress 221
▁深 221
▁辞書 221
▁長 221
▁頼 221
地 221
身 221
▁along 220
▁decided 220
▁examination 220
▁then 220
▁出かけ 220
▁午後 220
▁喜 220
▁美 220
▁見える 220
ちゃ 220
▁tried 219
▁ばかり 219
▁熱 219
▁限 219
▁食事 219
ike 218
▁cry 218
▁dream 218
▁hot 218
▁家族 218
▁幸せ 218
▁読 218
▁週間 218
ゴ 218
▁ap 217
▁dec 217
▁red 217
▁working 217
▁スー 217
▁名 217
▁落ち 217
▁遠 217
っかり 217
留 217
腹 217
cept 216
▁abroad 216
▁advice 216
▁動物 216
▁arri 215
▁ear 215
▁ロ 215
▁人々 215
▁俺 215
▁対 215
▁非常 215
▁langu 214
▁わけ 214
▁公園 214
▁初 214
▁恐 214
▁成 214
▁読む 214
命 214
ase 213
▁prop 213
▁住 213
▁止 213
▁送 213
務 213
文 213
pt 212
▁against 212
▁bring 212
▁concer 212
▁dri 212
▁pl 212
▁sol 212
▁子供たち 212
▁心 212
シ 212
半 212
pp 211
▁earth 211
▁mine 211
▁夕食 211
▁女の子 211
▁忙しい 211
▁終わっ 211
▁近く 211
合っ 211
▁af 210
▁en 210
▁expect 210
▁hour 210
▁ro 210
▁我 210
▁服 210
▁相 210
▁飲み 210
っくり 210
シー 210
暇 210
ger 209
▁catch 209
▁dark 209
▁kept 209
▁lunch 209
▁result 209
▁ta 209
▁手伝っ 209
▁火 209
▁見せ 209
▁走 209
件 209
慢 209
fer 208
ience 208
ision 208
less 208
▁diffe 208
▁小説 208
▁幸 208
▁読み 208
▁食 208
ぐ 208
グ 208
ヨー 208
争 208
備 208
品 208
▁behind 207
▁fire 207
▁order 207
▁ハ 207
▁待 207
▁間違い 207
▁change 206
▁interest 206
▁knows 206
▁pleas 206
▁書 206
▁生まれ 206
▁知 206
▁dictionary 205
▁haven 205
▁studying 205
▁よかっ 205
▁人間 205
▁馬 205
めて 205
rent 204
▁res 204
▁store 204
▁られる 204
▁二人 204
▁十分 204
▁探し 204
▁見つけ 204
院 204
ome 203
▁died 203
▁phone 203
▁エ 203
▁思い出 203
▁日曜日 203
▁理解 203
する 203
ぬ 203
演 203
▁fo 202
▁poor 202
▁started 202
▁すぎる 202
▁やる 202
▁降っ 202
リン 202
ou 201
▁del 201
▁hands 201
▁pen 201
▁six 201
▁ありがとう 201
▁口 201
▁船 201
ane 200
▁felt 200
▁mar 200
▁おか 200
▁かかっ 200
▁分から 200
▁暗 200
▁結果 200
▁開け 200
明 200
治 200
育 200
▁everybody 199
▁someone 199
▁メ 199
▁終え 199
ょ 199
ウ 199
加 199
▁8 198
▁hotel 198
▁point 198
▁ホテル 198
▁付 198
▁最近 198
▁要 198
ケット 198
体 198
刻 198
▁begin 197
▁full 197
▁hat 197
▁mistake 197
▁重 197
▁面白 197
▁靴 197
od 196
▁bill 196
▁forget 196
▁gi 196
▁words 196
▁writ 196
▁別 196
▁終わ 196
▁置 196
った 196
illed 195
▁afternoon 195
▁case 195
▁lived 195
▁sent 195
▁乗り 195
▁大好き 195
▁野球 195
しろ 195
社 195
験 195
ared 194
▁いくら 194
▁さえ 194
▁信 194
▁守 194
▁散歩 194
▁老 194
▁苦 194
▁警察 194
▁number 193
▁reason 193
▁ながら 193
ソ 193
ント 193
待 193
目 193
▁hold 192
▁ind 192
▁shall 192
▁usually 192
▁マイ 192
▁三 192
▁小さ 192
▁政 192
かけ 192
張 192
来 192
ced 191
▁novel 191
▁ゆ 191
▁予 191
表 191
ped 190
rew 190
▁australia 190
▁オーストラリア 190
▁作っ 190
▁皆 190
▁知らせ 190
▁聞こ 190
サ 190
宅 190
ient 189
side 189
▁baseball 189
▁building 189
▁happen 189
▁thir 189
▁ビ 189
▁風邪 189
ィ 189
殺 189
az 188
dd 188
ian 188
ough 188
▁drive 188
▁rich 188
▁stud 188
▁trouble 188
▁ダ 188
▁女性 188
▁進 188
屋 188
時 188
煙 188
由 188
ote 187
▁almost 187
▁fine 187
▁mountain 187
▁speaking 187
▁under 187
▁よろ 187
▁出席 187
▁到着 187
▁始 187
▁授業 187
▁流 187
約 187
ile 186
▁fin 186
▁だれ 186
▁主 186
▁起こっ 186
▁金持ち 186
▁降 186
ュー 186
clock 185
ither 185
self 185
▁across 185
▁opinion 185
▁あい 185
▁会う 185
▁古い 185
▁理由 185
ぜ 185
晴 185
立 185
能 185
led 184
▁char 184
▁des 184
▁fe 184
▁昨夜 184
▁消 184
▁願い 184
ired 183
ular 183
▁carry 183
▁dollars 183
▁honest 183
▁longer 183
▁mist 183
▁uncle 183
▁ど 183
▁感じ 183
▁戻っ 183
▁気分 183
▁違い 183
料 183
▁hospital 182
▁makes 182
▁resp 182
▁マ 182
▁娘 182
▁支 182
▁食べる 182
bt 181
ention 181
ought 181
▁birth 181
▁hurt 181
▁inc 181
▁others 181
▁whether 181
▁しま 181
▁フ 181
▁価 181
▁好 181
▁正しい 181
万 181
客 181
der 180
med 180
oup 180
used 180
▁follow 180
▁law 180
▁par 180
▁plane 180
▁売 180
▁行け 180
▁負 180
盗 180
談 180
集 180
form 179
port 179
▁movie 179
▁taking 179
▁お父さん 179
▁まったく 179
▁わかっ 179
▁妹 179
科 179
第 179
許 179
ction 178
▁agree 178
▁bicycle 178
▁clear 178
▁disc 178
▁int 178
▁pop 178
▁ジャ 178
▁買う 178
上げ 178
福 178
ren 177
▁favor 177
▁heart 177
▁おも 177
▁冷 177
▁平 177
▁電車 177
ーキ 177
可能 177
cer 176
ull 176
▁bit 176
▁mon 176
▁わたし 176
▁ビル 176
▁努力 176
▁姉 176
▁有名 176
▁重要 176
▁関係 176
ゃ 176
産 176
白 176
ath 175
irt 175
ting 175
▁making 175
▁men 175
▁め 175
▁取っ 175
▁帽子 175
▁新聞 175
光 175
oken 174
▁age 174
▁clot 174
▁exper 174
▁heavy 174
▁london 174
▁says 174
▁sub 174
▁ロンドン 174
▁魚 174
わっ 174
局 174
杯 174
職 174
▁cor 173
▁danger 173
▁使っ 173
▁危険 173
▁弟 173
▁所 173
▁持ち 173
▁横 173
▁覚え 173
▁became 172
▁breakfast 172
▁count 172
▁ken 172
▁mean 172
▁real 172
▁shoes 172
▁動 172
▁従 172
▁決め 172
怖 172
▁box 171
▁ke 171
▁nat 171
▁wasn 171
▁優 171
▁台 171
▁思わ 171
▁正直 171
▁間違っ 171
ード 171
判 171
iday 170
▁anyone 170
▁hair 170
▁together 170
▁woman 170
▁カメラ 170
▁ポ 170
▁広 170
▁日本語 170
▁立っ 170
▁興味 170
▁若 170
▁親 170
▁違 170
aken 169
▁evening 169
▁might 169
▁pol 169
▁ピアノ 169
▁嘘 169
▁声 169
▁怒っ 169
父 169
▁anim 168
▁fall 168
▁pick 168
▁ter 168
▁traffic 168
▁worked 168
▁人生 168
▁伝 168
▁反対 168
▁弾 168
▁悲 168
▁払 168
▁暑 168
▁暮 168
▁書き 168
▁机 168
▁母親 168
▁満足 168
▁立ち 168
▁頃 168
独 168
達 168
ier 167
▁aren 167
▁gen 167
▁pretty 167
▁suit 167
▁wear 167
▁素 167
まる 167
師 167
態 167
放 167
絶 167
br 166
here 166
▁death 166
▁dist 166
▁grand 166
▁road 166
▁慣 166
▁責 166
▁貸し 166
ング 166
渡 166
ke 165
so 165
▁brought 165
▁close 165
▁ok 165
▁speaks 165
▁ちょうど 165
▁ひと 165
▁今夜 165
▁今朝 165
▁箱 165
まり 165
リー 165
▁clim 164
▁desk 164
▁el 164
▁id 164
▁piano 164
▁場所 164
▁続け 164
▁賛成 164
▁青 164
セ 164
妻 164
髪 164
ics 163
▁9 163
▁expens 163
▁known 163
▁ready 163
▁値 163
▁忠 163
▁求 163
▁簡単 163
▁過ご 163
▁音 163
ates 162
oto 162
phone 162
▁between 162
▁daughter 162
▁dou 162
▁glass 162
▁よっ 162
▁会議 162
▁去 162
▁外出 162
▁用 162
▁番 162
神 162
ears 161
ope 161
▁clean 161
▁computer 161
▁str 161
▁temp 161
▁trans 161
▁きっと 161
▁ほしい 161
▁もらえ 161
▁テーブル 161
▁元気 161
▁指 161
▁昔 161
▁有 161
▁逃 161
▁途 161
▁驚い 161
けれ 161
滞 161
▁medic 160
▁song 160
▁speech 160
▁surprised 160
▁事実 160
▁叔 160
▁女 160
▁提案 160
▁欠 160
▁突 160
▁買 160
▁走っ 160
▁飛 160
候 160
案 160
際 160
面 160
▁camera 159
▁passed 159
▁sal 159
▁少な 159
▁市 159
▁意味 159
▁薬 159
ちら 159
ertain 158
▁adm 158
▁rather 158
▁デ 158
▁ペン 158
▁良く 158
▁財 158
しゃ 158
キー 158
回 158
app 157
ons 157
▁born 157
▁finish 157
▁four 157
▁paper 157
▁seat 157
▁ブ 157
▁庭 157
▁手伝 157
▁父親 157
▁貧 157
▁身 157
ョ 157
得 157
難 157
bed 156
vent 156
▁bag 156
▁famous 156
▁hurry 156
▁possible 156
▁うれ 156
▁与え 156
▁嫌い 156
▁書く 156
状 156
ize 155
ule 155
▁account 155
▁di 155
▁forg 155
▁inter 155
▁土 155
▁待ち 155
▁遅く 155
謝 155
除 155
類 155
駄 155
ident 154
▁chang 154
▁moment 154
▁necess 154
▁strange 154
▁tree 154
▁かなり 154
▁ぐ 154
▁みな 154
▁点 154
▁見つ 154
末 154
鳥 154
uss 153
▁: 153
▁feeling 153
▁pres 153
▁strong 153
▁swe 153
▁いっぱい 153
▁借り 153
▁助 153
▁立て 153
▁速く 153
化 153
済 153
港 153
準 153
田 153
秘 153
own 152
▁ad 152
▁milk 152
▁ph 152
▁quick 152
▁ref 152
▁slow 152
▁sometimes 152
▁swimming 152
▁きれい 152
▁取 152
▁夫 152
▁招 152
▁病 152
▁静 152
ew 151
yp 151
▁100 151
モ 151
想 151
点 151
着 151
認 151
▁ジョ 150
▁ピ 150
術 150
値 149
利 149
果 149
疑 149
陽 149
ese 148
out 148
▁beh 148
▁戻 148
ンド 148
割 148
吸 148
▁じ 147
だけ 147
付 147
坊 147
敵 147
罪 147
酒 147
orm 146
▁vis 146
▁続 146
▁考 146
下 146
修 146
ble 145
iss 145
▁bu 145
▁eas 145
▁天 145
ケ 145
景 145
校 145
登 145
迎 145
ugh 144
▁テ 144
京 144
5 143
ens 143
▁bir 143
▁面 143
一 143
参 143
路 143
ace 142
▁オ 142
朝 142
止 142
▁週 141
具 141
収 141
詩 141
道 141
ボ 140
取 140
犯 140
鍵 140
urn 139
振 139
礼 139
肉 139
ind 138
ossible 138
壊 138
完 138
誕 138
鹿 138
ky 137
ork 137
仲 137
傘 137
勤 137
原 137
普 137
曲 137
石 137
ook 136
余 136
害 136
ict 135
ner 135
密 135
給 135
義 135
read 134
▁昨 134
雑 134
▁eng 133
▁け 133
▁忙 133
倒 133
傷 133
冬 133
初 133
富 133
腕 133
賢 133
音 133
信 132
持ち 132
銀 132
ars 131
▁もら 131
互 131
寄 131
費 131
leep 130
▁仕 130
▁場 130
テ 130
夫 130
官 130
才 130
ame 129
▁break 129
▁ち 129
▁十 129
▁欲 129
さい 129
助 129
和 129
居 129
村 129
民 129
組 129
護 129
全 128
当 128
重 128
tain 127
星 127
足 127
追 127
riend 126
の子 126
円 126
弁 126
暖 126
歯 126
観 126
her 125
単 125
牛 125
衆 125
▁っ 124
冗 124
キ 123
将 123
応 123
恥 123
捕 123
湖 123
祖 123
階 123
容 122
延 122
種 122
igh 121
ith 121
ix 121
▁bel 121
ザ 121
商 121
存 121
決 121
舞 121
迷 121
iver 120
orrow 120
▁怒 120
ゆ 120
ゼ 120
ペ 120
春 120
特 120
辺 120
▁良 119
▁難 119
▁電 119
亡 119
向 119
扱 119
援 119
規 119
誤 119
by 118
号 118
問 118
婦 118
打 118
等 118
計 118
退 118
▁ag 117
▁belie 117
デ 117
丈 117
側 117
部 117
aper 116
ght 116
▁両 116
▁意 116
ぱ 116
尊 116
山 116
平 116
▁spe 115
▁wind 115
へ 115
識 115
適 115
oy 114
▁lear 114
▁注 114
価 114
則 114
対 114
戸 114
ade 113
ia 113
▁警 113
して 113
よ 113
メ 113
リア 113
処 113
勇 113
常 113
越 113
鳴 113
ass 112
から 112
労 112
増 112
ave 111
ished 111
▁cle 111
別 111
店 111
隣 111
首 111
1 110
ather 110
▁く 110
▁野 110
ノ 110
卵 110
善 110
氏 110
▁bot 109
▁yes 109
▁フランス 109
ゲ 109
個 109
聴 109
視 109
▁ho 108
んな 108
尋 108
破 108
起 108
隠 108
hing 107
ible 107
mer 107
▁ホ 107
払 107
求 107
良 107
荷 107
ok 106
▁sl 106
泊 106
球 106
絡 106
作 105
偶 105
声 105
曜 105
ball 104
▁間違 104
守 104
橋 104
習 104
見 104
▁com 103
休 103
倍 103
字 103
王 103
知 103
騒 103
掛 102
敬 102
究 102
震 102
gry 101
▁ba 101
友 101
慮 101
投 101
構 101
研 101
詳 101
貴 101
▁夕 100
▁英 100
ヶ 100
冊 100
嫌 100
尽 100
成 100
械 100
砂 100
障 100
other 99
▁受 99
▁覚 99
▁辞 99
ビ 99
左 99
機 99
飯 99
▁happ 98
乳 98
否 98
式 98
押 98
▁sw 97
▁思 97
とう 97
婚 97
布 97
権 97
翻 97
▁驚 96
奇 96
形 96
影 96
慣 96
為 96
▁ey 95
・ 95
恋 95
惑 95
耳 95
評 95
資 95
▁doll 94
ベ 94
▁wat 93
▁wom 93
▁旅 93
▁満 93
エ 93
位 93
右 93
床 93
活 93
片 93
返 93
釣 93
可 92
市 92
抜 92
掃 92
易 92
証 92
趣 92
黒 92
cl 91
int 91
服 91
筆 91
紙 91
配 91
▁mov 90
根 90
草 90
裕 90
齢 90
ually 89
▁持 89
▁試 89
北 89
室 89
温 89
練 89
軽 89
rest 88
▁sur 88
ァ 88
偉 88
史 88
届 88
撃 88
更 88
枚 88
混 88
誌 88
説 88
転 88
飼 88
黙 88
9 87
▁engl 87
▁うま 87
泥 87
番 87
郵 87
領 87
oon 86
▁surpr 86
介 86
専 86
浮 86
涙 86
激 86
統 86
課 86
▁pict 85
▁クラ 85
▁部 85
五 85
短 85
耐 85
触 85
ount 84
▁座 84
▁理 84
屈 84
復 84
注 84
禁 84
賞 84
ange 83
勢 83
厳 83
嬉 83
怠 83
丘 82
吹 82
壁 82
直 82
送 82
頂 82
頼 82
vel 81
▁lik 81
▁嫌 81
▁落 81
折 81
示 81
阪 81
▁公 80
▁説 80
儀 80
司 80
画 80
符 80
街 80
get 79
▁answ 79
▁bet 79
▁ton 79
▁終 79
委 79
抱 79
撮 79
昇 79
森 79
発 79
脱 79
自 79
例 78
去 78
喫 78
姿 78
数 78
歴 78
舎 78
▁fam 77
▁import 77
▁minut 77
▁友 77
優 77
劇 77
妙 77
島 77
嵐 77
査 77
棒 77
贈 77
風 77
ft 76
▁速 76
効 76
勉 76
快 76
描 76
比 76
減 76
糖 76
般 76
裏 76
門 76
av 75
ife 75
▁proble 75
卒 75
周 75
因 75
悔 75
損 75
海 75
焼 75
現 75
痛 75
紹 75
運 75
陸 75
ffe 74
劣 74
沈 74
精 74
覚 74
鉛 74
雇 74
iness 73
ream 73
▁mil 73
▁答 73
捜 73
況 73
燃 73
紅 73
雲 73
; 72
xt 72
乏 72
像 72
売 72
奥 72
技 72
響 72
ten 71
ught 71
▁提 71
呂 71
園 71
庫 71
弟 71
律 71
確 71
3 70
way 70
▁sch 70
▁ペ 70
ヤ 70
再 70
博 70
講 70
雨 70
魔 70
, 69
ュ 69
停 69
制 69
塗 69
工 69
秋 69
高 69
▁beaut 68
保 68
皿 68
績 68
▁lar 67
▁興 67
ユ 67
奮 67
汚 67
派 67
異 67
節 67
線 67
限 67
順 67
▁op 66
▁危 66
世 66
共 66
器 66
囲 66
型 66
御 66
泳 66
洋 66
葉 66
血 66
解 66
鏡 66
ng 65
捨 65
換 65
救 65
甘 65
酔 65
alth 64
ctor 64
ひ 64
勝 64
境 64
接 64
池 64
笑 64
農 64
関 64
ided 63
we 63
▁bec 63
▁午 63
ぁ 63
微 63
挙 63
替 63
誇 63
邪 63
低 62
本 62
氷 62
討 62
郎 62
▁gir 61
▁くだ 61
ティ 61
兵 61
叫 61
四 61
程 61
競 61
芸 61
調 61
量 61
魅 61
▁息 60
愚 60
椅 60
植 60
死 60
誘 60
質 60
2 59
cess 59
oun 59
▁pers 59
▁pret 59
たし 59
匹 59
弱 59
思 59
悪 59
歩 59
浴 59
濯 59
米 59
設 59
ason 58
ild 58
九 58
包 58
句 58
固 58
棚 58
診 58
貯 58
% 57
▁mom 57
夜 57
旅 57
象 57
cle 56
mber 56
▁beg 56
▁非 56
営 56
塩 56
攻 56
致 56
頃 56
預 56
題 56
額 56
養 56
ree 55
▁wa 55
ょう 55
名 55
府 55
歓 55
航 55
述 55
vor 54
▁tri 54
勘 54
帯 54
空 54
過 54
鉄 54
八 53
基 53
天 53
奴 53
標 53
毛 53
策 53
角 53
▁da 52
ぽ 52
ヘ 52
噂 52
奪 52
患 52
拒 52
爆 52
紳 52
胸 52
装 52
踊 52
造 52
▁min 51
▁ret 51
傾 51
医 51
差 51
持 51
率 51
環 51
細 51
終 51
腐 51
陰 51
頑 51
omet 50
▁健 50
宇 50
宙 50
察 50
拠 50
瓶 50
菜 50
▁fir 49
▁inte 49
▁かな 49
伸 49
十 49
午 49
寝 49
群 49
輝 49
郷 49
飽 49
▁反 48
▁願 48
免 48
協 48
失 48
益 48
看 48
緑 48
製 48
逮 48
骨 48
召 47
季 47
急 47
怪 47
油 47
避 47
霊 47
▁古 46
岸 46
旧 46
未 46
相 46
税 46
緊 46
蔵 46
輸 46
進 46
香 46
$ 45
ink 45
▁hur 45
▁nu 45
並 45
供 45
刑 45
及 45
札 45
検 45
眼 45
睡 45
▁オー 44
主 44
授 44
有 44
級 44
芝 44
被 44
銃 44
very 43
work 43
▁list 43
▁とこ 43
▁忘 43
▁探 43
希 43
幽 43
戦 43
毒 43
眠 43
虫 43
駐 43
ister 42
▁与 42
丸 42
久 42
千 42
喧 42
嘩 42
展 42
恵 42
狂 42
狭 42
算 42
納 42
補 42
豊 42
8 41
anger 41
▁借 41
▁貸 41
底 41
息 41
携 41
染 41
汽 41
辛 41
釈 41
鞄 41
鮮 41
aking 40
ほ 40
んど 40
ォ 40
六 40
区 40
城 40
宝 40
幸 40
承 40
敢 40
端 40
覆 40
輪 40
uth 39
▁underst 39
悟 39
憶 39
柄 39
滅 39
眺 39
祝 39
遂 39
icy 38
ouse 38
▁約 38
企 38
双 38
寂 38
憩 38
懸命 38
握 38
暮 38
暴 38
概 38
歳 38
源 38
磨 38
継 38
袋 38
要 38
闇 38
願 38
C 37
▁dif 37
乱 37
働 37
医者 37
古 37
唯 37
多 37
契 37
愛 37
抑 37
整 37
正 37
祭 37
移 37
肩 37
腰 37
誉 37
誠 37
速 37
▁cam 36
▁heav 36
不 36
伺 36
依 36
元 36
域 36
廃 36
悩 36
模 36
罰 36
落 36
賃 36
D 35
estion 35
fic 35
▁build 35
▁sho 35
七 35
使 35
俳 35
冒 35
好 35
引 35
我 35
拾 35
濃 35
病 35
穴 35
置 35
跡 35
雪 35
電 35
▁sum 34
▁計 34
喋 34
団 34
均 34
変 34
奏 34
導 34
庭 34
忍 34
担 34
推 34
桜 34
濡 34
版 34
牲 34
犠 34
百 34
稼 34
答 34
軍 34
録 34
ital 33
llow 33
ther 33
wn 33
▁bor 33
▁pian 33
▁teac 33
▁一生 33
ゅ 33
戻 33
沿 33
潔 33
熟 33
祈 33
逆 33
銭 33
険 33
黄 33
reet 32
なた 32
孤 32
安 32
徹 32
満 32
遠 32
霧 32
eak 31
osp 31
ughter 31
▁hon 31
▁少 31
井 31
兄 31
勧 31
叱 31
姉 31
寺 31
就 31
己 31
役 31
志 31
浪 31
渋 31
療 31
試 31
賛 31
開 31
咲 30
座 30
極 30
水 30
永 30
玄 30
署 30
衝 30
諦 30
貿 30
離 30
麗 30
鼻 30
T 29
ince 29
▁trou 29
▁ちょう 29
▁コー 29
ふ 29
まれ 29
乾 29
凍 29
印 29
受 29
幾 29
感 29
批 29
拶 29
挨 29
楽 29
浜 29
界 29
羊 29
翌 29
蔑 29
訴 29
請 29
距 29
飢 29
4 28
6 28
▁bre 28
▁きれ 28
▁ニ 28
▁ピア 28
仰 28
券 28
埋 28
塔 28
奈 28
寿 28
板 28
積 28
筋 28
臓 28
覧 28
辱 28
ich 27
ination 27
がら 27
ても 27
丁 27
乗 27
令 27
妹 27
属 27
慎 27
教 27
是 27
沢 27
災 27
票 27
築 27
素 27
繰 27
雷 27
非 27
ek 26
▁whe 26
▁散 26
ぴ 26
ヒ 26
侮 26
匂 26
台 26
履 26
改 26
族 26
章 26
続 26
締 26
薄 26
藤 26
裁 26
遅 26
違 26
防 26
静 26
gh 25
▁compan 25
▁hel 25
▁元 25
予 25
少 25
摘 25
既 25
林 25
没 25
珍 25
癖 25
瞬 25
衣 25
西 25
較 25
革 25
駅 25
▁pe 24
▁smok 24
▁tim 24
南 24
吠 24
含 24
圧 24
巻 24
揺 24
新 24
殴 24
涯 24
璧 24
盛 24
綺 24
載 24
頓 24
ming 23
oney 23
’ 23
たち 23
堂 23
奨 23
択 23
採 23
流 23
消 23
突 23
臆 23
華 23
訓 23
詰 23
譲 23
超 23
軒 23
遭 23
野 23
ホ 22
リカ 22
創 22
卓 22
厚 22
同 22
小 22
州 22
惰 22
栄 22
渉 22
火 22
胃 22
著 22
襲 22
走 22
酸 22
降 22
鶏 22
af 21
▁列 21
▁努 21
▁東 21
ょっと 21
徒 21
抗 21
暢 21
柔 21
欲 21
涼 21
漏 21
焦 21
照 21
穏 21
経 21
脚 21
脳 21
隊 21
需 21
頭 21
iction 20
▁問 20
囚 20
妬 20
尾 20
徐 20
控 20
波 20
溺 20
灯 20
犬 20
総 20
美 20
菓 20
遺 20
郊 20
随 20
雄 20
麦 20
gether 19
▁sometim 19
▁べ 19
▁テー 19
▁パー 19
▁申 19
ヌ 19
咳 19
噛 19
幅 19
扉 19
操 19
条 19
武 19
洪 19
測 19
滑 19
灰 19
熊 19
硬 19
秀 19
穫 19
臭 19
船 19
裂 19
豆 19
購 19
遣 19
▁diction 18
▁メア 18
▁料 18
ぷ 18
ブル 18
ヨ 18
了 18
催 18
喉 18
塀 18
妨 18
宿 18
徳 18
懐 18
抵 18
旨 18
曇 18
株 18
沖 18
漫 18
複 18
貨 18
酷 18
針 18
▁mus 17
▁到 17
典 17
剣 17
反 17
嘆 17
女 17
川 17
干 17
房 17
拝 17
捧 17
政 17
洗 17
渇 17
症 17
監 17
粉 17
粧 17
紀 17
緒 17
編 17
繁 17
谷 17
途 17
韓 17
餌 17
inner 16
▁lun 16
▁thr 16
▁ありが 16
▁必 16
二 16
仮 16
似 16
係 16
偵 16
募 16
妥 16
嫉 16
幼 16
往 16
核 16
檎 16
欠 16
献 16
畑 16
皮 16
矢 16
範 16
紐 16
肌 16
脅 16
蓄 16
逃 16
連 16
鋭 16
隷 16
顔 16
麻 16
F 15
now 15
ountain 15
▁reme 15
▁質 15
ぱい 15
ヒー 15
仕 15
伴 15
函 15
占 15
吐 15
始 15
寧 15
岩 15
弾 15
探 15
揮 15
搭 15
敏 15
斎 15
材 15
枯 15
省 15
督 15
純 15
縄 15
老 15
考 15
肺 15
臣 15
蜂 15
謎 15
豚 15
闘 15
陥 15
era 14
▁宿 14
▁飛行 14
ストラ 14
佐 14
僚 14
先 14
叩 14
堪 14
威 14
封 14
射 14
層 14
愉 14
戚 14
施 14
木 14
棄 14
液 14
添 14
湿 14
漢 14
無 14
獲 14
癌 14
稿 14
箸 14
羽 14
聖 14
胆 14
膝 14
苺 14
莫 14
衰 14
誓 14
赤 14
迫 14
▁mor 13
交 13
列 13
結 13
負 13
alk 12
▁med 12
▁trave 12
くり 12
呼 12
困 12
7 11
▁起 11
公 11
功 11
指 11
早 11
昨 11
暗 11
猫 11
薬 11
fore 10
road 10
▁spee 10
ティー 10
土 10
選 10
lt 9
夕 9
帰 9
散 9
映 9
残 9
辞 9
馬 9
▁aust 8
▁beautif 8
▁parent 8
▁簡 8
与 8
住 8
喜 8
支 8
敗 8
pr 7
怒 7
暑 7
親 7
ral 6
▁mu 6
▁ほと 6
▁写 6
▁映 6
写 6
君 6
従 6
東 6
責 6
近 6
aut 5
▁ple 5
伝 5
到 5
忙 5
悲 5
英 5
青 5
ause 4
ceed 4
most 4
▁bicy 4
▁hosp 4
▁すべ 4
▁疲 4
ハ 4
借 4
夢 4
懸 4
熱 4
男 4
読 4
買 4
飛 4
ross 3
▁base 3
▁peop 3
もり 3
ニス 3
ランス 3
三 3
両 3
広 3
束 3
▁unt 2
▁授 2
今 2
▁自転 1
太 1
花 1
madeupword0000 0
madeupword0001 0
madeupword0002 0
madeupword0003 0
madeupword0004 0
madeupword0005 0
madeupword0006 0
